{
  "version": "1.0",
  "truncation": null,
  "padding": null,
  "added_tokens": [
    {
      "id": 0,
      "content": "<|unk|>",
      "single_word": false,
      "lstrip": false,
      "rstrip": false,
      "normalized": false,
      "special": true
    },
    {
      "id": 1,
      "content": "<|bos|>",
      "single_word": false,
      "lstrip": false,
      "rstrip": false,
      "normalized": false,
      "special": true
    },
    {
      "id": 2,
      "content": "<|endoftext|>",
      "single_word": false,
      "lstrip": false,
      "rstrip": false,
      "normalized": false,
      "special": true
    },
    {
      "id": 3,
      "content": "<|pad|>",
      "single_word": false,
      "lstrip": false,
      "rstrip": false,
      "normalized": false,
      "special": true
    }
  ],
  "normalizer": null,
  "pre_tokenizer": {
    "type": "ByteLevel",
    "add_prefix_space": true,
    "trim_offsets": true,
    "use_regex": true
  },
  "post_processor": null,
  "decoder": {
    "type": "ByteLevel",
    "add_prefix_space": true,
    "trim_offsets": true,
    "use_regex": true
  },
  "model": {
    "type": "BPE",
    "dropout": null,
    "unk_token": "<|unk|>",
    "continuing_subword_prefix": null,
    "end_of_word_suffix": null,
    "fuse_unk": false,
    "byte_fallback": false,
    "ignore_merges": false,
    "vocab": {
      "<|unk|>": 0,
      "<|bos|>": 1,
      "<|endoftext|>": 2,
      "<|pad|>": 3,
      "!": 4,
      "\"": 5,
      "$": 6,
      "%": 7,
      "&": 8,
      "'": 9,
      "(": 10,
      ")": 11,
      "*": 12,
      "+": 13,
      ",": 14,
      "-": 15,
      ".": 16,
      "/": 17,
      "0": 18,
      "1": 19,
      "2": 20,
      "3": 21,
      "4": 22,
      "5": 23,
      "6": 24,
      "7": 25,
      "8": 26,
      "9": 27,
      ":": 28,
      ";": 29,
      "=": 30,
      ">": 31,
      "?": 32,
      "@": 33,
      "A": 34,
      "B": 35,
      "C": 36,
      "D": 37,
      "E": 38,
      "F": 39,
      "G": 40,
      "H": 41,
      "I": 42,
      "J": 43,
      "K": 44,
      "L": 45,
      "M": 46,
      "N": 47,
      "O": 48,
      "P": 49,
      "Q": 50,
      "R": 51,
      "S": 52,
      "T": 53,
      "U": 54,
      "V": 55,
      "W": 56,
      "X": 57,
      "Y": 58,
      "Z": 59,
      "[": 60,
      "]": 61,
      "^": 62,
      "_": 63,
      "a": 64,
      "b": 65,
      "c": 66,
      "d": 67,
      "e": 68,
      "f": 69,
      "g": 70,
      "h": 71,
      "i": 72,
      "j": 73,
      "k": 74,
      "l": 75,
      "m": 76,
      "n": 77,
      "o": 78,
      "p": 79,
      "q": 80,
      "r": 81,
      "s": 82,
      "t": 83,
      "u": 84,
      "v": 85,
      "w": 86,
      "x": 87,
      "y": 88,
      "z": 89,
      "|": 90,
      "¡": 91,
      "¢": 92,
      "£": 93,
      "¤": 94,
      "¦": 95,
      "§": 96,
      "©": 97,
      "ª": 98,
      "«": 99,
      "¬": 100,
      "®": 101,
      "°": 102,
      "±": 103,
      "²": 104,
      "³": 105,
      "µ": 106,
      "¶": 107,
      "·": 108,
      "¹": 109,
      "º": 110,
      "»": 111,
      "¼": 112,
      "½": 113,
      "¾": 114,
      "¿": 115,
      "Â": 116,
      "Ã": 117,
      "Î": 118,
      "Ð": 119,
      "Ñ": 120,
      "á": 121,
      "â": 122,
      "ï": 123,
      "ð": 124,
      "Ċ": 125,
      "Ġ": 126,
      "Ģ": 127,
      "ģ": 128,
      "Ĥ": 129,
      "ĥ": 130,
      "Ĩ": 131,
      "ī": 132,
      "ĭ": 133,
      "ı": 134,
      "Ĵ": 135,
      "ĵ": 136,
      "Ķ": 137,
      "Ĺ": 138,
      "ĺ": 139,
      "Ļ": 140,
      "ļ": 141,
      "ľ": 142,
      "Ŀ": 143,
      "Ł": 144,
      "ł": 145,
      "Ń": 146,
      "Ġt": 147,
      "Ġa": 148,
      "in": 149,
      "he": 150,
      "re": 151,
      "on": 152,
      "Ġthe": 153,
      "Ġs": 154,
      "er": 155,
      "en": 156,
      "at": 157,
      "Ġc": 158,
      "Ġo": 159,
      "es": 160,
      "nd": 161,
      "al": 162,
      "it": 163,
      "Ġp": 164,
      "ing": 165,
      "or": 166,
      "is": 167,
      "an": 168,
      "Ġw": 169,
      "Ġf": 170,
      "Ġb": 171,
      "Ġin": 172,
      "Ġand": 173,
      "ed": 174,
      "Ġof": 175,
      "ic": 176,
      "ou": 177,
      "ion": 178,
      "ar": 179,
      "Ġto": 180,
      "Ġm": 181,
      "Ġd": 182,
      "ro": 183,
      "ent": 184,
      "le": 185,
      "Ġh": 186,
      "as": 187,
      "ct": 188,
      "om": 189,
      "Ġre": 190,
      "Ġe": 191,
      "Ġth": 192,
      "ĠT": 193,
      "lo": 194,
      "ve": 195,
      "il": 196,
      "us": 197,
      "ly": 198,
      "Ġbe": 199,
      "Ġg": 200,
      "ation": 201,
      "Ġis": 202,
      "Ġn": 203,
      "ce": 204,
      "im": 205,
      "ut": 206,
      "ir": 207,
      "ch": 208,
      "et": 209,
      "st": 210,
      "id": 211,
      "ol": 212,
      "ur": 213,
      "ot": 214,
      "Ġl": 215,
      "ra": 216,
      "âĢ": 217,
      "Ġst": 218,
      "ĠA": 219,
      "ig": 220,
      "Ġfor": 221,
      "Ġy": 222,
      "ĠI": 223,
      "ĠThe": 224,
      "se": 225,
      "Ġon": 226,
      "ment": 227,
      "ver": 228,
      "Ġpro": 229,
      "Ġthat": 230,
      "ul": 231,
      "ĠS": 232,
      "Ġcon": 233,
      "Ġare": 234,
      "Ġyou": 235,
      "ĠC": 236,
      "ith": 237,
      "ess": 238,
      "Ġas": 239,
      "if": 240,
      "Ġal": 241,
      "Ġwith": 242,
      "Ġan": 243,
      "ag": 244,
      "ure": 245,
      "ter": 246,
      "ay": 247,
      "el": 248,
      "ow": 249,
      "am": 250,
      "ies": 251,
      "Ġor": 252,
      "her": 253,
      "od": 254,
      "ity": 255,
      "Ġwh": 256,
      "Ġha": 257,
      "Ġcan": 258,
      "ĠB": 259,
      "ate": 260,
      "ĠM": 261,
      "Ġit": 262,
      "pe": 263,
      "th": 264,
      "un": 265,
      "Ġcom": 266,
      "Ġex": 267,
      "est": 268,
      "ĠP": 269,
      "Ġse": 270,
      "Ġhe": 271,
      "ad": 272,
      "ers": 273,
      "ci": 274,
      "ant": 275,
      "ain": 276,
      "Ġde": 277,
      "ist": 278,
      "Ġsu": 279,
      "Ġv": 280,
      "ab": 281,
      "Ġch": 282,
      "ĠF": 283,
      "iv": 284,
      "ive": 285,
      "ore": 286,
      "ill": 287,
      "ke": 288,
      "qu": 289,
      "pp": 290,
      "ĠW": 291,
      "ss": 292,
      "Ġr": 293,
      "âĢĻ": 294,
      "ort": 295,
      "igh": 296,
      "ac": 297,
      "ĠE": 298,
      "Ġ(": 299,
      "Ġen": 300,
      "em": 301,
      "ĠH": 302,
      "ud": 303,
      "Ġus": 304,
      "rom": 305,
      "ction": 306,
      "ere": 307,
      "ĠD": 308,
      "Ġby": 309,
      "ical": 310,
      "nt": 311,
      "um": 312,
      "Ġyour": 313,
      "Ġlo": 314,
      "ĠG": 315,
      "Ġle": 316,
      "Ġ1": 317,
      "Ġ-": 318,
      "Ġ2": 319,
      "Ġat": 320,
      "ld": 321,
      "Ġpre": 322,
      "art": 323,
      "pt": 324,
      "Ġfrom": 325,
      "age": 326,
      "Ġsh": 327,
      "Ġne": 328,
      "op": 329,
      "king": 330,
      "du": 331,
      "are": 332,
      "ĠR": 333,
      "our": 334,
      "ri": 335,
      "Ġpl": 336,
      "and": 337,
      "ance": 338,
      "ĠL": 339,
      "ich": 340,
      "Ġim": 341,
      "ĠIn": 342,
      "und": 343,
      "os": 344,
      "Ġcomp": 345,
      "per": 346,
      "all": 347,
      "hen": 348,
      "act": 349,
      "ect": 350,
      "iz": 351,
      "ust": 352,
      "Ġint": 353,
      "ous": 354,
      "Ġtheir": 355,
      "end": 356,
      "Ġnot": 357,
      "ight": 358,
      "ual": 359,
      "Ġhave": 360,
      "ated": 361,
      "ome": 362,
      "Ġwas": 363,
      "ff": 364,
      "ther": 365,
      "ĠâĢ": 366,
      "Ġab": 367,
      "up": 368,
      "ult": 369,
      "so": 370,
      "ge": 371,
      "Ġres": 372,
      "Ġwor": 373,
      "ost": 374,
      "ĠN": 375,
      "ions": 376,
      "Ġcont": 377,
      "Ġwhich": 378,
      "cl": 379,
      "ĠTh": 380,
      "Ġad": 381,
      "ru": 382,
      "Ġthis": 383,
      "cess": 384,
      "ial": 385,
      "ĠO": 386,
      "log": 387,
      "rou": 388,
      "orm": 389,
      "ans": 390,
      "ast": 391,
      "ors": 392,
      "ations": 393,
      "Ġman": 394,
      "ard": 395,
      "Ġwe": 396,
      "out": 397,
      "able": 398,
      "ck": 399,
      "gh": 400,
      "ood": 401,
      "ces": 402,
      "low": 403,
      "Ġgen": 404,
      "ide": 405,
      "olog": 406,
      "cial": 407,
      "ould": 408,
      "Ġac": 409,
      "ib": 410,
      "Ġca": 411,
      "Ġwill": 412,
      "ire": 413,
      "ell": 414,
      "Ġthey": 415,
      "ence": 416,
      "Ġalso": 417,
      "Ġinv": 418,
      "Ġimp": 419,
      "lic": 420,
      "Ġinf": 421,
      "ine": 422,
      "Ġdis": 423,
      "Ġmore": 424,
      "dit": 425,
      "reat": 426,
      "Ġte": 427,
      "row": 428,
      "Ġdo": 429,
      "Ġind": 430,
      "ach": 431,
      "ign": 432,
      "Ġso": 433,
      "ary": 434,
      "ild": 435,
      "Ġun": 436,
      "Ġapp": 437,
      "Ġall": 438,
      "ike": 439,
      "ong": 440,
      "Ġbut": 441,
      "ĠIt": 442,
      "ĠThis": 443,
      "Ġtra": 444,
      "Ġhas": 445,
      "LE": 446,
      "ie": 447,
      "Ġk": 448,
      "Ġother": 449,
      "ments": 450,
      "ps": 451,
      "ater": 452,
      "Ġrec": 453,
      "av": 454,
      "Ġpo": 455,
      "ake": 456,
      "pl": 457,
      "ress": 458,
      "Ġspe": 459,
      "te": 460,
      "Ġcl": 461,
      "ue": 462,
      "Ġsp": 463,
      "EN": 464,
      "Ġsy": 465,
      "Ġev": 466,
      "ĠU": 467,
      "Ġfe": 468,
      "Ġj": 469,
      "ics": 470,
      "ord": 471,
      "ry": 472,
      "ind": 473,
      "ks": 474,
      "Ġlike": 475,
      "Ġper": 476,
      "Ġprodu": 477,
      "ber": 478,
      "ose": 479,
      "ount": 480,
      "very": 481,
      "ile": 482,
      "Ġthem": 483,
      "lop": 484,
      "velop": 485,
      "Ġthese": 486,
      "Ġbec": 487,
      "ĠâĢľ": 488,
      "ak": 489,
      "ear": 490,
      "ase": 491,
      "âĢĿ": 492,
      "erv": 493,
      "ific": 494,
      "og": 495,
      "Ġout": 496,
      "00": 497,
      "Ġstud": 498,
      "iron": 499,
      "Ġag": 500,
      "ents": 501,
      "yp": 502,
      "Ġhow": 503,
      "con": 504,
      "Ġtim": 505,
      "ack": 506,
      "ple": 507,
      "ep": 508,
      "Ġar": 509,
      "Ġstart": 510,
      "ms": 511,
      "ub": 512,
      "Ġund": 513,
      "ass": 514,
      "iff": 515,
      "Ġinto": 516,
      "rit": 517,
      "Ġcons": 518,
      "Ġmay": 519,
      "Ġsuch": 520,
      "clud": 521,
      "ne": 522,
      "Ġent": 523,
      "alth": 524,
      "Ġdevelop": 525,
      "ffect": 526,
      "Ġro": 527,
      "ities": 528,
      "ice": 529,
      "ound": 530,
      "Ġone": 531,
      "ays": 532,
      "Ġhel": 533,
      "Ġtr": 534,
      "Ġcol": 535,
      "Ġwho": 536,
      "Ġabout": 537,
      "hy": 538,
      "Ġoff": 539,
      "Ġme": 540,
      "Ġdi": 541,
      "Ġuse": 542,
      "use": 543,
      "chn": 544,
      "ame": 545,
      "ĠY": 546,
      "ark": 547,
      "Ġits": 548,
      "Ġfund": 549,
      "'s": 550,
      "Ġcomm": 551,
      "Ġunder": 552,
      "ace": 553,
      "ia": 554,
      "viron": 555,
      "Ġsc": 556,
      "Ġpart": 557,
      ").": 558,
      "ĠJ": 559,
      "Ġup": 560,
      "Ġover": 561,
      "ish": 562,
      "Ġdiff": 563,
      "ang": 564,
      "ail": 565,
      "one": 566,
      "ite": 567,
      "Ġfood": 568,
      "now": 569,
      "ree": 570,
      "ital": 571,
      "ten": 572,
      "Ġwhen": 573,
      "Ġinclud": 574,
      "stem": 575,
      "Ġqu": 576,
      "ating": 577,
      "ory": 578,
      "Ġthan": 579,
      "Ġ20": 580,
      "ons": 581,
      "yg": 582,
      "vers": 583,
      "ning": 584,
      "Ġbet": 585,
      "ĠWh": 586,
      "ution": 587,
      "Ġprov": 588,
      "ced": 589,
      "ip": 590,
      "ential": 591,
      "oc": 592,
      "Ġblo": 593,
      "Ġdes": 594,
      "vironment": 595,
      "les": 596,
      "Ġwere": 597,
      "Ġgrow": 598,
      "Ġyear": 599,
      "OD": 600,
      "ĠSt": 601,
      "Ġris": 602,
      "Ġneed": 603,
      "Ġinvest": 604,
      "Ġhelp": 605,
      "ful": 606,
      "uring": 607,
      "Ġchild": 608,
      "Ġwork": 609,
      "ology": 610,
      "Ġtechn": 611,
      "ENE": 612,
      "Ġthere": 613,
      "ari": 614,
      "Ġhigh": 615,
      "Ġem": 616,
      "Ġexam": 617,
      "Ġsupp": 618,
      "Ġtime": 619,
      "TI": 620,
      "ĠK": 621,
      "Ġra": 622,
      "ional": 623,
      "Ġrep": 624,
      "rough": 625,
      "ric": 626,
      "Ġinter": 627,
      "Ġonly": 628,
      "form": 629,
      "ĠV": 630,
      "Ġif": 631,
      "Ġear": 632,
      "Ġspec": 633,
      "ĠMOD": 634,
      "Ġhealth": 635,
      "Ġsystem": 636,
      "ok": 637,
      "Ġ.": 638,
      "ility": 639,
      "ved": 640,
      "Ġtw": 641,
      "here": 642,
      "ough": 643,
      "Ġhum": 644,
      "ctions": 645,
      "cre": 646,
      "ens": 647,
      "Ġhis": 648,
      "Ġgo": 649,
      "Ġany": 650,
      "ources": 651,
      "ruct": 652,
      "Ġfunding": 653,
      "oz": 654,
      "ype": 655,
      "Ġsa": 656,
      "ene": 657,
      "Ġpat": 658,
      "irst": 659,
      "ivid": 660,
      "its": 661,
      "lect": 662,
      "oth": 663,
      "ĠGENE": 664,
      "com": 665,
      "ries": 666,
      "Ġour": 667,
      "Ġseed": 668,
      "ULE": 669,
      "Ġsol": 670,
      "Ġsome": 671,
      "Ġpe": 672,
      "Ġwell": 673,
      "ross": 674,
      "ĠMODULE": 675,
      "vent": 676,
      "ren": 677,
      "ational": 678,
      "ular": 679,
      "rib": 680,
      "ature": 681,
      "Ġwater": 682,
      "ural": 683,
      "ĠCh": 684,
      "Ġenvironment": 685,
      "bs": 686,
      "Ġsur": 687,
      "Ġpr": 688,
      "ings": 689,
      "ĠThese": 690,
      "ĠHow": 691,
      "Ġknow": 692,
      "cur": 693,
      "ph": 694,
      "Ġhair": 695,
      "Ġexp": 696,
      "ozyg": 697,
      "ov": 698,
      "iness": 699,
      "Ġrel": 700,
      "Ġdiffere": 701,
      "ividual": 702,
      "ange": 703,
      "Ġmany": 704,
      "ible": 705,
      "Ġstartup": 706,
      "AN": 707,
      "Ġsign": 708,
      "Ġbo": 709,
      "Ġmost": 710,
      "omin": 711,
      "imate": 712,
      "ient": 713,
      "ts": 714,
      "Ġ3": 715,
      "itis": 716,
      "ices": 717,
      "Ġtrans": 718,
      "ble": 719,
      "we": 720,
      "Ġam": 721,
      "ates": 722,
      "ĠAl": 723,
      "Ġloc": 724,
      "fore": 725,
      "xt": 726,
      "hed": 727,
      "Ġreg": 728,
      "Ġrequ": 729,
      "Ġbeh": 730,
      "Ġnew": 731,
      "Ġindividual": 732,
      "aking": 733,
      "ata": 734,
      "Ġfirst": 735,
      "Ġrem": 736,
      "Ġbeen": 737,
      "Ġform": 738,
      "Ġact": 739,
      "Ġaut": 740,
      "erg": 741,
      "round": 742,
      "hes": 743,
      "Ġfol": 744,
      "Ġthrough": 745,
      "ract": 746,
      "Ġcondit": 747,
      "ify": 748,
      "Ġshould": 749,
      "ap": 750,
      "tain": 751,
      "als": 752,
      "ople": 753,
      "Ġplant": 754,
      "ron": 755,
      "Ġpol": 756,
      "Ġmet": 757,
      "ident": 758,
      "avi": 759,
      "Ġenter": 760,
      "ick": 761,
      "usiness": 762,
      "ages": 763,
      "ative": 764,
      "ives": 765,
      "Ġrequire": 766,
      "ool": 767,
      "Ġsm": 768,
      "Ġused": 769,
      "ĠRe": 770,
      "Ġcap": 771,
      "ructure": 772,
      "ds": 773,
      "ise": 774,
      "Ġke": 775,
      "ally": 776,
      "Ġatt": 777,
      "fter": 778,
      "Ġserv": 779,
      "Ġmod": 780,
      "Ġhom": 781,
      "vel": 782,
      "stand": 783,
      "Ġprog": 784,
      "Ġprocess": 785,
      "Ġexper": 786,
      "Ġvari": 787,
      "get": 788,
      "ton": 789,
      "Ġinst": 790,
      "ĠSe": 791,
      "ĠCom": 792,
      "Ġshow": 793,
      "ize": 794,
      "Ġappro": 795,
      "other": 796,
      "Ġsub": 797,
      "ered": 798,
      "Ġpeople": 799,
      "air": 800,
      "ft": 801,
      "Ġsk": 802,
      "Ġcre": 803,
      "Ġoften": 804,
      "Ġmin": 805,
      "ĠIf": 806,
      "Ġpres": 807,
      "Ġimport": 808,
      "tt": 809,
      "Ġco": 810,
      "arch": 811,
      "Ġrese": 812,
      "Ġbehavi": 813,
      "ger": 814,
      "gan": 815,
      "ied": 816,
      "ject": 817,
      "wn": 818,
      "ww": 819,
      "Ġ4": 820,
      "int": 821,
      "Ġbusiness": 822,
      "Ġincre": 823,
      "ases": 824,
      "Ġredu": 825,
      "cept": 826,
      "Ġwhat": 827,
      "Ġinvol": 828,
      "conom": 829,
      "ON": 830,
      "cent": 831,
      "ale": 832,
      "iss": 833,
      "Ġwhere": 834,
      "Ġlar": 835,
      "Ġext": 836,
      "ĠFor": 837,
      "Ġresult": 838,
      "ypes": 839,
      "ause": 840,
      "cy": 841,
      "res": 842,
      "Ġeach": 843,
      "tern": 844,
      "Ġsupport": 845,
      "Ġtwo": 846,
      "ozygous": 847,
      "ween": 848,
      "mer": 849,
      "ins": 850,
      "ased": 851,
      "Ġeffect": 852,
      "ety": 853,
      "Ġdep": 854,
      "Ġplan": 855,
      "Ġcomple": 856,
      "Ġrisk": 857,
      "ever": 858,
      "iqu": 859,
      "ob": 860,
      "sel": 861,
      "pect": 862,
      "unity": 863,
      "ade": 864,
      "ically": 865,
      "Ġlead": 866,
      "ublic": 867,
      "Ġbetween": 868,
      "ER": 869,
      "ness": 870,
      "ring": 871,
      "wor": 872,
      "Ġsim": 873,
      "Ġpers": 874,
      "Ġfound": 875,
      "Ġboth": 876,
      "uture": 877,
      "ĠAs": 878,
      "Ġalle": 879,
      "Ġens": 880,
      "Ġworld": 881,
      "Ġgener": 882,
      "Ġyears": 883,
      "hing": 884,
      "rast": 885,
      "ues": 886,
      "Ġfact": 887,
      "Ġdet": 888,
      "Ġdra": 889,
      "ife": 890,
      "ĠEn": 891,
      "ually": 892,
      "co": 893,
      "Ġtreat": 894,
      "red": 895,
      "Ġcent": 896,
      "ality": 897,
      "Ġpop": 898,
      "Ġway": 899,
      "Ġmed": 900,
      "ute": 901,
      "Ġhad": 902,
      "Ġproduct": 903,
      "Ġdifferent": 904,
      "ian": 905,
      "Ġident": 906,
      "Ġphen": 907,
      "ank": 908,
      "Ġmark": 909,
      "Ġstr": 910,
      "ists": 911,
      "Ġlow": 912,
      "Ġ18": 913,
      "ys": 914,
      "Ġpot": 915,
      "ram": 916,
      "Ġwhile": 917,
      "ological": 918,
      "Ġenteritis": 919,
      "Ġcle": 920,
      "old": 921,
      "Ġval": 922,
      "agement": 923,
      "ization": 924,
      "Ġstudy": 925,
      "Ġdevelopment": 926,
      "Ġgrowth": 927,
      "lin": 928,
      "any": 929,
      "Ġdomin": 930,
      "Ġbefore": 931,
      "Ġless": 932,
      "Ġinfl": 933,
      "Ġposs": 934,
      "Ġprovid": 935,
      "Ġspecies": 936,
      "ience": 937,
      "ty": 938,
      "Ġshe": 939,
      "Ġduring": 940,
      "aster": 941,
      "chool": 942,
      "ĠThey": 943,
      "Ġproble": 944,
      "ove": 945,
      "ration": 946,
      "Ġsame": 947,
      "Ġche": 948,
      "Ġcare": 949,
      "Ġown": 950,
      "Ġmake": 951,
      "Ġref": 952,
      "olution": 953,
      "Ġlong": 954,
      "ĠPro": 955,
      "cient": 956,
      "Ġclimate": 957,
      "Ġdesign": 958,
      "Ġtechnology": 959,
      "Ġsmall": 960,
      "Ġimportant": 961,
      "//": 962,
      "be": 963,
      "led": 964,
      "ted": 965,
      "ves": 966,
      "Ġ5": 967,
      "erm": 968,
      "Ġfin": 969,
      "Ġfuture": 970,
      "ily": 971,
      "ĠThere": 972,
      "vern": 973,
      "ĠFr": 974,
      "ĠEx": 975,
      "Ġend": 976,
      "ized": 977,
      "Ġ202": 978,
      "Ġresearch": 979,
      "cord": 980,
      "Ġed": 981,
      "Ġess": 982,
      "Ġset": 983,
      "ition": 984,
      "ision": 985,
      "Ġhtt": 986,
      "oms": 987,
      "ĠCon": 988,
      "Ġresp": 989,
      "Ġinform": 990,
      "Ġjust": 991,
      "par": 992,
      "Ġ&": 993,
      "ather": 994,
      "Ġwould": 995,
      "Ġdata": 996,
      "asp": 997,
      "Ġrev": 998,
      "Ġno": 999,
      "ĠAn": 1000,
      "Ġallow": 1001,
      "ĠWhen": 1002,
      "Ġusing": 1003,
      "Ġlear": 1004,
      "Ġprevent": 1005,
      "arent": 1006,
      "Ġbecause": 1007,
      "Ġunderstand": 1008,
      "ĠWhat": 1009,
      "Ġsaf": 1010,
      "aw": 1011,
      "ien": 1012,
      "light": 1013,
      "Ġafter": 1014,
      "Ġser": 1015,
      "ering": 1016,
      "urn": 1017,
      "ures": 1018,
      "Ġart": 1019,
      "Ġcolor": 1020,
      "Ġstartups": 1021,
      "Ġpotential": 1022,
      "),": 1023,
      "cing": 1024,
      "Ġtest": 1025,
      "Ġpain": 1026,
      "Ġequ": 1027,
      "Ġbeing": 1028,
      "els": 1029,
      "ĠNe": 1030,
      "Ġadd": 1031,
      "Ġsocial": 1032,
      "iew": 1033,
      "Ġperson": 1034,
      "uch": 1035,
      "Ġher": 1036,
      "ines": 1037,
      "Ġsources": 1038,
      "Ġmain": 1039,
      "lob": 1040,
      "cling": 1041,
      "ĠYou": 1042,
      "Ġhuman": 1043,
      "Ġsignific": 1044,
      "Ġmarket": 1045,
      "://": 1046,
      "ting": 1047,
      "Ġtem": 1048,
      "Ġaffect": 1049,
      "Ġcould": 1050,
      "arm": 1051,
      "Ġnum": 1052,
      "acter": 1053,
      "hys": 1054,
      "ving": 1055,
      "ward": 1056,
      "Ġsw": 1057,
      "own": 1058,
      "ĠBy": 1059,
      "Ġdef": 1060,
      "Ġ19": 1061,
      "Ġcaus": 1062,
      "Ġeven": 1063,
      "Ġblood": 1064,
      "rastructure": 1065,
      ".âĢĿ": 1066,
      "LI": 1067,
      "uc": 1068,
      "Ġtake": 1069,
      "ink": 1070,
      "Ġoper": 1071,
      "Ġbu": 1072,
      "Ġbir": 1073,
      "Ġmon": 1074,
      "ody": 1075,
      "ĠBe": 1076,
      "ĠâĢĵ": 1077,
      "Ġsym": 1078,
      "de": 1079,
      "Ġtype": 1080,
      "Ġap": 1081,
      "ath": 1082,
      "Ġback": 1083,
      "ctor": 1084,
      "urs": 1085,
      "Ġant": 1086,
      "Ġorgan": 1087,
      "Ġchar": 1088,
      "Ġcontrib": 1089,
      "Ġrecy": 1090,
      "aspber": 1091,
      "CS": 1092,
      "DE": 1093,
      "io": 1094,
      "read": 1095,
      "ond": 1096,
      "Ġful": 1097,
      "Ġbene": 1098,
      "Ġhist": 1099,
      "Ġevery": 1100,
      "ote": 1101,
      "rap": 1102,
      "Ġprom": 1103,
      "Ġsee": 1104,
      "ption": 1105,
      "ditional": 1106,
      "Ġindust": 1107,
      "Ġcommon": 1108,
      "ocus": 1109,
      "TION": 1110,
      "Ġconditions": 1111,
      "Ġcapital": 1112,
      "Ġphenot": 1113,
      "ier": 1114,
      "Ġ6": 1115,
      "Ġest": 1116,
      "Ġav": 1117,
      "ining": 1118,
      "Ġcall": 1119,
      "Ġcount": 1120,
      "itive": 1121,
      "uss": 1122,
      "Ġhand": 1123,
      "ains": 1124,
      "ĠWe": 1125,
      "ands": 1126,
      "allen": 1127,
      "Ġadv": 1128,
      "Ġcause": 1129,
      "ples": 1130,
      "Ġconsid": 1131,
      "Ġfollow": 1132,
      "Ġdominant": 1133,
      "aa": 1134,
      "ll": 1135,
      "lish": 1136,
      "sy": 1137,
      "Ġide": 1138,
      "Ġvery": 1139,
      "Ġcur": 1140,
      "Ġcross": 1141,
      "Ġcases": 1142,
      "Ġfun": 1143,
      "Ġins": 1144,
      "Ġreal": 1145,
      "imal": 1146,
      "Ġass": 1147,
      "iven": 1148,
      "Ġloss": 1149,
      "Ġlevel": 1150,
      "Ġimpact": 1151,
      "ĠUn": 1152,
      "Ġexample": 1153,
      "Ġactiv": 1154,
      "ral": 1155,
      "Ġpract": 1156,
      "Ġtop": 1157,
      "Ġeff": 1158,
      "Ġgra": 1159,
      "agn": 1160,
      "ĠPl": 1161,
      "Ġchang": 1162,
      "ĠHe": 1163,
      "Ġreport": 1164,
      "Ġearly": 1165,
      "ĠHowever": 1166,
      "Ġbehavior": 1167,
      "meric": 1168,
      "Ġsignificant": 1169,
      "aspberries": 1170,
      "aaS": 1171,
      "ix": 1172,
      "oid": 1173,
      "ware": 1174,
      "Ġking": 1175,
      "Ġthen": 1176,
      "Ġcult": 1177,
      "Ġoc": 1178,
      "Ġpow": 1179,
      "Ġphys": 1180,
      "Ġfam": 1181,
      "Ġfocus": 1182,
      "ently": 1183,
      "Ġeconom": 1184,
      "ury": 1185,
      "ĠAd": 1186,
      "Ġprof": 1187,
      "amm": 1188,
      "cessive": 1189,
      "Ġgene": 1190,
      "rown": 1191,
      "Ġincluding": 1192,
      "Ġblock": 1193,
      "Ġlarge": 1194,
      "Ġhttps": 1195,
      "Ġinformation": 1196,
      "Ġschool": 1197,
      "Ġbi": 1198,
      "Ġbul": 1199,
      "ason": 1200,
      "omen": 1201,
      "Ġret": 1202,
      "Ġelect": 1203,
      "Ġlife": 1204,
      "ĠAmeric": 1205,
      "Ġanother": 1206,
      "ters": 1207,
      "ared": 1208,
      "riend": 1209,
      "Ġcontin": 1210,
      "Ġimpro": 1211,
      "Ġinclude": 1212,
      "Ġbetter": 1213,
      "Ġgovern": 1214,
      "Ġknown": 1215,
      "Ġessential": 1216,
      "Ġbenef": 1217,
      "ious": 1218,
      "tle": 1219,
      "ined": 1220,
      "ince": 1221,
      "atural": 1222,
      "ited": 1223,
      "Ġparent": 1224,
      "ention": 1225,
      "Ġele": 1226,
      "Ġgreat": 1227,
      "utions": 1228,
      "ĠAI": 1229,
      "ĠIN": 1230,
      "cia": 1231,
      "Ġdec": 1232,
      "iving": 1233,
      "Ġleg": 1234,
      "ENDE": 1235,
      "Ġbecome": 1236,
      "Ġchildren": 1237,
      "Ġindividuals": 1238,
      "Ġmeth": 1239,
      "Ġkey": 1240,
      "LIAN": 1241,
      "ENDELIAN": 1242,
      "..": 1243,
      "AC": 1244,
      "the": 1245,
      "ways": 1246,
      "Ġtre": 1247,
      "Ġclo": 1248,
      "Ġfore": 1249,
      "Ġmade": 1250,
      "Ġdel": 1251,
      "Ġthose": 1252,
      "ills": 1253,
      "ĠDe": 1254,
      "ptoms": 1255,
      "Ġimm": 1256,
      "Ġquest": 1257,
      "Ġinvestors": 1258,
      "TICS": 1259,
      "ĠGENETICS": 1260,
      "ique": 1261,
      "Ġtemper": 1262,
      "Ġappe": 1263,
      "enet": 1264,
      "Ġfl": 1265,
      "Ġdown": 1266,
      "Ġnorm": 1267,
      "ets": 1268,
      "ĠSo": 1269,
      "ateg": 1270,
      "Ġsuc": 1271,
      "orts": 1272,
      "Ġpress": 1273,
      "Ġresources": 1274,
      "Ġdog": 1275,
      "Ġearth": 1276,
      "Ġhomozygous": 1277,
      "20": 1278,
      "IN": 1279,
      "ock": 1280,
      "Ġ7": 1281,
      "Ġcru": 1282,
      "Ġwar": 1283,
      "Ġbody": 1284,
      "ĠAnd": 1285,
      "Ġprot": 1286,
      "Ġconf": 1287,
      "Ġprovide": 1288,
      "lobal": 1289,
      "TIONS": 1290,
      "Ġmethod": 1291,
      "br": 1292,
      "ling": 1293,
      "nce": 1294,
      "Ġve": 1295,
      "Ġcost": 1296,
      "Ġpublic": 1297,
      "Ġdue": 1298,
      "rol": 1299,
      "Ġiss": 1300,
      "pecia": 1301,
      "ability": 1302,
      "Ġchallen": 1303,
      "Ġdoes": 1304,
      "Ġapplic": 1305,
      "akes": 1306,
      "Ġhumans": 1307,
      "Ġservices": 1308,
      "Ġfactors": 1309,
      "Ġrecycling": 1310,
      "sych": 1311,
      ",âĢĿ": 1312,
      "TER": 1313,
      "ave": 1314,
      "gg": 1315,
      "pen": 1316,
      "Ġ\"": 1317,
      "Ġfind": 1318,
      "ict": 1319,
      "Ġmight": 1320,
      "Ġvir": 1321,
      "Ġchange": 1322,
      "Ġwaste": 1323,
      "Ġgenes": 1324,
      "Ġperform": 1325,
      "Ġconsum": 1326,
      "Ġmeas": 1327,
      "Ġpartic": 1328,
      "Ġproducts": 1329,
      "Ġidentify": 1330,
      "ĠFrank": 1331,
      "apt": 1332,
      "ges": 1333,
      "nov": 1334,
      "ern": 1335,
      "Ġpar": 1336,
      "Ġbl": 1337,
      "Ġbre": 1338,
      "ars": 1339,
      "Ġma": 1340,
      "Ġdist": 1341,
      "asing": 1342,
      "ashing": 1343,
      "lopecia": 1344,
      "Ġwithout": 1345,
      "ĠBut": 1346,
      "Ġhead": 1347,
      "ender": 1348,
      "Ġstudents": 1349,
      "Ġagree": 1350,
      "Ġenvironmental": 1351,
      "Ġplants": 1352,
      "Ġreduce": 1353,
      "Ġdrag": 1354,
      "Ġpossible": 1355,
      "Ġhistory": 1356,
      "Ġcalled": 1357,
      "Ġcrucial": 1358,
      "ivers": 1359,
      "Ġill": 1360,
      "ator": 1361,
      "Ġcar": 1362,
      "Ġopp": 1363,
      "ales": 1364,
      "itch": 1365,
      "icle": 1366,
      "ĠTe": 1367,
      "Ġanal": 1368,
      "Ġright": 1369,
      "Ġ17": 1370,
      "Ġdiet": 1371,
      "Ġ201": 1372,
      "Ġvarious": 1373,
      "Ġskin": 1374,
      "work": 1375,
      "Ġensure": 1376,
      "Ġstrateg": 1377,
      "Ġfinan": 1378,
      "Ġpower": 1379,
      "ĠINTER": 1380,
      "ACTIONS": 1381,
      "ĠFranklin": 1382,
      "ĠINTERACTIONS": 1383,
      "eg": 1384,
      "hip": 1385,
      "ze": 1386,
      "Ġâ": 1387,
      "ination": 1388,
      "ones": 1389,
      "Ġob": 1390,
      "ism": 1391,
      "Ġfre": 1392,
      "ĠTo": 1393,
      "aging": 1394,
      "illion": 1395,
      "arded": 1396,
      "Ġrole": 1397,
      "Ġsymptoms": 1398,
      "der": 1399,
      "less": 1400,
      "Ġair": 1401,
      "edi": 1402,
      "Ġgood": 1403,
      "Ġwithin": 1404,
      "ĠBrit": 1405,
      "Ġheter": 1406,
      "istics": 1407,
      "ource": 1408,
      "Ġcontain": 1409,
      "Ġmanagement": 1410,
      "Ġinfrastructure": 1411,
      "Ġdisc": 1412,
      "ney": 1413,
      "Ġdetail": 1414,
      "Ġproblem": 1415,
      "Ġnumber": 1416,
      "Ġbuild": 1417,
      "Ġindustry": 1418,
      "Ġpressure": 1419,
      "ashington": 1420,
      "sp": 1421,
      "ven": 1422,
      "inction": 1423,
      "Ġscient": 1424,
      "ense": 1425,
      "Ġcreat": 1426,
      "Ġbro": 1427,
      "Ġmaking": 1428,
      "Ġdig": 1429,
      "Ġey": 1430,
      "Ġbel": 1431,
      "Ġnet": 1432,
      "chie": 1433,
      "verty": 1434,
      "Ġvis": 1435,
      "Ġcho": 1436,
      "Ġraspberries": 1437,
      "Ġenc": 1438,
      "Ġeng": 1439,
      "Ġlook": 1440,
      "ustom": 1441,
      "ĠOne": 1442,
      "Ġpoint": 1443,
      "Ġfeel": 1444,
      "Ġpercent": 1445,
      "ogn": 1446,
      "Ġagain": 1447,
      "cond": 1448,
      "Ġdiagn": 1449,
      "ĠWhile": 1450,
      "Ġemp": 1451,
      "Ġpresent": 1452,
      "www": 1453,
      "ID": 1454,
      "ection": 1455,
      "mp": 1456,
      "ner": 1457,
      "xual": 1458,
      "Ġtyp": 1459,
      "Ġaround": 1460,
      "Ġcor": 1461,
      "Ġopt": 1462,
      "Ġpur": 1463,
      "Ġport": 1464,
      "Ġinit": 1465,
      "oun": 1466,
      "Ġtool": 1467,
      "Ġday": 1468,
      "asis": 1469,
      "Ġnatural": 1470,
      "Ġlight": 1471,
      "ĠInd": 1472,
      "ulation": 1473,
      "agle": 1474,
      "Ġcome": 1475,
      "ants": 1476,
      "istic": 1477,
      "Ġcontrol": 1478,
      "Ġallele": 1479,
      "Ġoccur": 1480,
      "CE": 1481,
      "action": 1482,
      "ches": 1483,
      "yl": 1484,
      "Ġ8": 1485,
      "Ġcell": 1486,
      "Ġcrit": 1487,
      "Ġpos": 1488,
      "Ġbest": 1489,
      "Ġhim": 1490,
      "Ġrest": 1491,
      "Ġglobal": 1492,
      "âĢĶ": 1493,
      "ĠCan": 1494,
      "ĠMENDELIAN": 1495,
      "cience": 1496,
      "erest": 1497,
      "Ġlog": 1498,
      "Ġacid": 1499,
      "Ġaccess": 1500,
      "Ġintern": 1501,
      "Ġcondition": 1502,
      "Ġelectron": 1503,
      "Ġsuccess": 1504,
      "por": 1505,
      "va": 1506,
      "Ġ$": 1507,
      "ann": 1508,
      "Ġwomen": 1509,
      "Ġfriend": 1510,
      "ication": 1511,
      "Ġmess": 1512,
      "rop": 1513,
      "Ġget": 1514,
      "urther": 1515,
      "Ġland": 1516,
      "Ġconst": 1517,
      "Ġcomes": 1518,
      "Ġseen": 1519,
      "Ġdev": 1520,
      "Ġplace": 1521,
      "izing": 1522,
      "soci": 1523,
      "Ġgenot": 1524,
      "Ġspecial": 1525,
      "000": 1526,
      "ĠYour": 1527,
      "Ġrisks": 1528,
      "ricult": 1529,
      "Ġeduc": 1530,
      "Ġimprove": 1531,
      "Ġfinancial": 1532,
      "come": 1533,
      "iel": 1534,
      "me": 1535,
      "mend": 1536,
      "Ġalopecia": 1537,
      "Ġopen": 1538,
      "itor": 1539,
      "ised": 1540,
      "Ġmem": 1541,
      "Ġdon": 1542,
      "Ġdire": 1543,
      "Ġnon": 1544,
      "Ġlit": 1545,
      "Ġassoci": 1546,
      "pecial": 1547,
      "ĠEX": 1548,
      "Ġimage": 1549,
      "Ġcompany": 1550,
      "Ġrock": 1551,
      "Ġcommunity": 1552,
      "angu": 1553,
      "Ġneeds": 1554,
      "Ġrepres": 1555,
      "Ġprim": 1556,
      "curity": 1557,
      "Ġamong": 1558,
      "Ġcreate": 1559,
      "Ġunderstanding": 1560,
      "Ġbird": 1561,
      "Ġcharacter": 1562,
      "Ġphysical": 1563,
      "Ġbelie": 1564,
      "crib": 1565,
      "jor": 1566,
      "to": 1567,
      "ug": 1568,
      "Ġ9": 1569,
      "inci": 1570,
      "hent": 1571,
      "hether": 1572,
      "Ġpay": 1573,
      "ished": 1574,
      "anced": 1575,
      "Ġbr": 1576,
      "Ġmat": 1577,
      "Ġmus": 1578,
      "Ġmust": 1579,
      "Ġdr": 1580,
      "rodu": 1581,
      "Ġread": 1582,
      "ilar": 1583,
      "rams": 1584,
      "verse": 1585,
      "amet": 1586,
      "Ġcomb": 1587,
      "Ġexpl": 1588,
      "ivity": 1589,
      "ĠDC": 1590,
      "osity": 1591,
      "Ġunique": 1592,
      "Ġallerg": 1593,
      "Ġpoverty": 1594,
      "Ġfew": 1595,
      "Ġamount": 1596,
      "Ġapproach": 1597,
      "ĠEng": 1598,
      "Ġclear": 1599,
      "Ġinflu": 1600,
      "Ġfollowing": 1601,
      "Ġgovernment": 1602,
      "PLE": 1603,
      "ape": 1604,
      "ips": 1605,
      "ox": 1606,
      "Ġter": 1607,
      "Ġachie": 1608,
      "ators": 1609,
      "iting": 1610,
      "Ġph": 1611,
      "Ġfour": 1612,
      "Ġmen": 1613,
      "Ġhome": 1614,
      "Ġrecessive": 1615,
      "Ġthough": 1616,
      "Ġgrou": 1617,
      "ray": 1618,
      "Ġstand": 1619,
      "Ġproper": 1620,
      "ĠSp": 1621,
      "ĠSome": 1622,
      "ellow": 1623,
      "Ġ10": 1624,
      "ĠRes": 1625,
      "osp": 1626,
      "Ġability": 1627,
      "Ġwebs": 1628,
      "Ġhighlight": 1629,
      "Ġspecific": 1630,
      "Ġauthent": 1631,
      "Ġservice": 1632,
      "gery": 1633,
      "Ġeffective": 1634,
      "Ġdepend": 1635,
      "Ġtreatment": 1636,
      "Ġclean": 1637,
      "Ġfull": 1638,
      "Ġprofess": 1639,
      "Ġtemperature": 1640,
      "Ġdiscuss": 1641,
      "SS": 1642,
      "gen": 1643,
      "pre": 1644,
      "tual": 1645,
      "Ġcal": 1646,
      "Ġcustom": 1647,
      "Ġpass": 1648,
      "ances": 1649,
      "Ġmult": 1650,
      "Ġmuch": 1651,
      "Ġdid": 1652,
      "Ġrele": 1653,
      "ĠAt": 1654,
      "Ġareas": 1655,
      "Ġorder": 1656,
      "ately": 1657,
      "ĠMon": 1658,
      "though": 1659,
      "ĠWith": 1660,
      "Ġnecess": 1661,
      "Ġplay": 1662,
      "Ġinterest": 1663,
      "Ġdise": 1664,
      "Ġjob": 1665,
      "Ġproduction": 1666,
      "Ġinvolved": 1667,
      "ission": 1668,
      "Ġresults": 1669,
      "Ġcomplete": 1670,
      "Ġrespons": 1671,
      "Ġlearn": 1672,
      "Ġbulb": 1673,
      "Ġcritical": 1674,
      "fact": 1675,
      "land": 1676,
      "line": 1677,
      "Ġtypes": 1678,
      "inal": 1679,
      "reen": 1680,
      "Ġsat": 1681,
      "ertain": 1682,
      "Ġpa": 1683,
      "Ġwant": 1684,
      "Ġflow": 1685,
      "Ġinnov": 1686,
      "icient": 1687,
      "Ġhy": 1688,
      "Ġeagle": 1689,
      "Ġthink": 1690,
      "iles": 1691,
      "Ġgu": 1692,
      "Ġgender": 1693,
      "chain": 1694,
      "Ġstill": 1695,
      "Ġforms": 1696,
      "ĠIaaS": 1697,
      "Ġconcept": 1698,
      "ĠPre": 1699,
      "ĠWashington": 1700,
      "aches": 1701,
      "Ġusually": 1702,
      "Ġlet": 1703,
      "ustain": 1704,
      "Ġable": 1705,
      "clus": 1706,
      "Ġadapt": 1707,
      "Ġdisp": 1708,
      "Ġteam": 1709,
      "Ġrecord": 1710,
      "aves": 1711,
      "Ġjo": 1712,
      "Ġproduce": 1713,
      "Ġstudies": 1714,
      "Ġregular": 1715,
      "Ġpolic": 1716,
      "Ġprograms": 1717,
      "Ġexperience": 1718,
      "Ġinvolves": 1719,
      "Ġplanning": 1720,
      "Ġchem": 1721,
      "cordance": 1722,
      "Ġlearning": 1723,
      "Ġsafe": 1724,
      "Ġavoid": 1725,
      "Ġassess": 1726,
      "Ġactivities": 1727,
      "Ġchanges": 1728,
      "ET": 1729,
      "day": 1730,
      "ead": 1731,
      "iod": 1732,
      "oking": 1733,
      "pr": 1734,
      "Ġes": 1735,
      "Ġur": 1736,
      "Ġtal": 1737,
      "Ġcase": 1738,
      "Ġpsych": 1739,
      "Ġfac": 1740,
      "Ġfall": 1741,
      "Ġbal": 1742,
      "Ġbrown": 1743,
      "Ġmor": 1744,
      "Ġmel": 1745,
      "Ġmass": 1746,
      "Ġred": 1747,
      "loy": 1748,
      "Ġgl": 1749,
      "Ġgr": 1750,
      "Ġgiven": 1751,
      "idd": 1752,
      "Ġlangu": 1753,
      "ĠAc": 1754,
      "Ġprote": 1755,
      "Ġarea": 1756,
      "Ġalways": 1757,
      "Ġanimal": 1758,
      "term": 1759,
      "Ġdem": 1760,
      "Ġvol": 1761,
      "ĠWor": 1762,
      "Ġrun": 1763,
      "acy": 1764,
      "ems": 1765,
      "ĠDis": 1766,
      "Ġinteg": 1767,
      "ĠThat": 1768,
      "Ġacc": 1769,
      "Ġjour": 1770,
      "Ġlikely": 1771,
      "Ġtimes": 1772,
      "Ġinvestment": 1773,
      "Ġpath": 1774,
      "Ġsurgery": 1775,
      "ANCE": 1776,
      "Ġlocal": 1777,
      "Ġrequired": 1778,
      "Ġrequirements": 1779,
      "ĠSeed": 1780,
      "ĠComm": 1781,
      "Ġcomplex": 1782,
      "Ġestab": 1783,
      "Ġcountries": 1784,
      "ammation": 1785,
      "Ġforest": 1786,
      "Ġquestions": 1787,
      "Ġchallenges": 1788,
      "Ġopport": 1789,
      "Ġelectronics": 1790,
      "Ġrepresent": 1791,
      "Ġwebsite": 1792,
      "af": 1793,
      "au": 1794,
      "bers": 1795,
      "pist": 1796,
      "uro": 1797,
      "ĠÂ": 1798,
      "Ġtherap": 1799,
      "nds": 1800,
      "Ġfem": 1801,
      "Ġmind": 1802,
      "Ġhard": 1803,
      "Ġel": 1804,
      "Ġthree": 1805,
      "vere": 1806,
      "idence": 1807,
      "âĢ¦": 1808,
      "sequ": 1809,
      "Ġprop": 1810,
      "Ġconc": 1811,
      "Ġorig": 1812,
      "hers": 1813,
      "une": 1814,
      "Ġsecond": 1815,
      "Ġsuff": 1816,
      "Ġrange": 1817,
      "Ġshort": 1818,
      "ĠInf": 1819,
      "ĠâĢ¢": 1820,
      "ials": 1821,
      "Ġacross": 1822,
      "Ġinfection": 1823,
      "Ġsoci": 1824,
      "Ġagricult": 1825,
      "Ġoffer": 1826,
      "Ġscal": 1827,
      "Ġsystems": 1828,
      "Ġsolutions": 1829,
      "Ġbook": 1830,
      "Ġprogram": 1831,
      "jects": 1832,
      "Ġleading": 1833,
      "Ġmedical": 1834,
      "Ġinflammation": 1835,
      "cording": 1836,
      "Ġtests": 1837,
      "Ġaddress": 1838,
      "Ġmaintain": 1839,
      "Ġapplication": 1840,
      "Ġparticular": 1841,
      "Ġanaly": 1842,
      "Ġheterozygous": 1843,
      "12": 1844,
      "ax": 1845,
      "az": 1846,
      "actions": 1847,
      "care": 1848,
      "fort": 1849,
      "iance": 1850,
      "oor": 1851,
      "pat": 1852,
      "Ġ[": 1853,
      "Ġvers": 1854,
      "rent": 1855,
      "Ġsince": 1856,
      "Ġclic": 1857,
      "orosity": 1858,
      "Ġwrit": 1859,
      "icult": 1860,
      "Ġtoget": 1861,
      "lement": 1862,
      "Ġthings": 1863,
      "lying": 1864,
      "Ġsec": 1865,
      "Ġsever": 1866,
      "abor": 1867,
      "Ġleft": 1868,
      "opy": 1869,
      "Ġworking": 1870,
      "Ġtraining": 1871,
      "Ġbecame": 1872,
      "Ġroot": 1873,
      "Ġpatient": 1874,
      "Ġsolar": 1875,
      "ĠAll": 1876,
      "Ġincreasing": 1877,
      "self": 1878,
      "Ġproblems": 1879,
      "wards": 1880,
      "Ġcontribute": 1881,
      "Ġfunction": 1882,
      "enetr": 1883,
      "Ġissues": 1884,
      "Ġdragon": 1885,
      "iversity": 1886,
      "ĠEnglish": 1887,
      "Ġtogether": 1888,
      "AL": 1889,
      "ched": 1890,
      "ium": 1891,
      "not": 1892,
      "oy": 1893,
      "upp": 1894,
      "Ġer": 1895,
      "inning": 1896,
      "ats": 1897,
      "Ġbased": 1898,
      "Ġmy": 1899,
      "Ġmac": 1900,
      "Ġmove": 1901,
      "ash": 1902,
      "Ġeas": 1903,
      "imals": 1904,
      "Ġlive": 1905,
      "Ġlast": 1906,
      "Ġstructure": 1907,
      "ĠCre": 1908,
      "ified": 1909,
      "Ġhaving": 1910,
      "ĠBel": 1911,
      "emic": 1912,
      "ember": 1913,
      "ĠHair": 1914,
      "Ġleast": 1915,
      "Ġnext": 1916,
      "duct": 1917,
      "ĠInst": 1918,
      "ĠâĢĶ": 1919,
      "Ġdoctor": 1920,
      "Ġtrait": 1921,
      "Ġfeature": 1922,
      "aken": 1923,
      "ĠKore": 1924,
      "Ġsaid": 1925,
      "Ġexpress": 1926,
      "ergy": 1927,
      "Ġpoll": 1928,
      "Ġsimple": 1929,
      "Ġpopulation": 1930,
      "Ġstrong": 1931,
      "Ġcheck": 1932,
      "Ġarticle": 1933,
      "Ġconsider": 1934,
      "Ġinsight": 1935,
      "Ġfamily": 1936,
      "Ġreturn": 1937,
      "Ġbenefits": 1938,
      "Ġnormal": 1939,
      "Ġbreak": 1940,
      "Ġfrequ": 1941,
      "ĠCanad": 1942,
      "Ġdisease": 1943,
      ".,": 1944,
      "10": 1945,
      "ex": 1946,
      "ls": 1947,
      "ym": 1948,
      "yle": 1949,
      "Ġturn": 1950,
      "atory": 1951,
      "ither": 1952,
      "Ġpair": 1953,
      "Ġbra": 1954,
      "ications": 1955,
      "Ġmater": 1956,
      "Ġmakes": 1957,
      "Ġdest": 1958,
      "ask": 1959,
      "Ġgamet": 1960,
      "Ġnow": 1961,
      "ime": 1962,
      "idney": 1963,
      "Ġstones": 1964,
      "ĠIs": 1965,
      "ĠServ": 1966,
      "unities": 1967,
      "Ġexpect": 1968,
      "Ġsevere": 1969,
      "ĠEar": 1970,
      "ĠGod": 1971,
      "ĠOn": 1972,
      "ards": 1973,
      "ibility": 1974,
      "Ġspace": 1975,
      "Ġbecom": 1976,
      "epend": 1977,
      "Ġmeans": 1978,
      "Ġdifficult": 1979,
      "Ġpattern": 1980,
      "Ġprinci": 1981,
      "Ġattention": 1982,
      "ledge": 1983,
      "ĠExam": 1984,
      "Ġallows": 1985,
      "Ġsafety": 1986,
      "Ġcaused": 1987,
      "Ġlevels": 1988,
      "ĠAmerican": 1989,
      "Ġlegal": 1990,
      "Ġdeli": 1991,
      "Ġmajor": 1992,
      "Ġillust": 1993,
      "ĠBritish": 1994,
      "Ġagainst": 1995,
      "Ġtools": 1996,
      "Ġassociated": 1997,
      "ĠBelva": 1998,
      "AM": 1999,
      "LLE": 2000,
      "lished": 2001,
      "nces": 2002,
      "Ġaim": 2003,
      "reg": 2004,
      "erve": 2005,
      "atic": 2006,
      "Ġcoun": 2007,
      "aling": 2008,
      "Ġfive": 2009,
      "Ġfree": 2010,
      "Ġfurther": 2011,
      "ouse": 2012,
      "outh": 2013,
      "ental": 2014,
      "Ġhig": 2015,
      "Ġrece": 2016,
      "Ġbearded": 2017,
      "Ġnational": 2018,
      "uted": 2019,
      "Ġstress": 2020,
      "Ġstren": 2021,
      "ĠAR": 2022,
      "ĠALLE": 2023,
      "Ġyellow": 2024,
      "ĠIm": 2025,
      "Ġhaz": 2026,
      "Ġexist": 2027,
      "Ġsepar": 2028,
      "Ġvi": 2029,
      "ĠFID": 2030,
      "Ġuser": 2031,
      "oph": 2032,
      "ĠLaw": 2033,
      "Ġevolution": 2034,
      "Ġproduced": 2035,
      "aily": 2036,
      "Ġquick": 2037,
      "Ġtransform": 2038,
      "Ġlocated": 2039,
      "Ġkeep": 2040,
      "Ġexperien": 2041,
      "Ġextinction": 2042,
      "Ġdeterm": 2043,
      "Ġpopular": 2044,
      "ĠNew": 2045,
      "Ġmonth": 2046,
      "Ġvirtual": 2047,
      "Ġagreement": 2048,
      "Ġtypically": 2049,
      "Ġeducation": 2050,
      "Ġdirect": 2051,
      "pecially": 2052,
      "ospital": 2053,
      "Ġnecessary": 2054,
      "Ġchemical": 2055,
      "ĠFIDO": 2056,
      "The": 2057,
      "aut": 2058,
      "face": 2059,
      "ged": 2060,
      "tm": 2061,
      "ued": 2062,
      "ufact": 2063,
      "Ġsit": 2064,
      "Ġcertain": 2065,
      "itud": 2066,
      "itches": 2067,
      "Ġput": 2068,
      "anies": 2069,
      "Ġwild": 2070,
      "Ġfig": 2071,
      "Ġmach": 2072,
      "roph": 2073,
      "lection": 2074,
      "ommend": 2075,
      "Ġreason": 2076,
      "Ġeither": 2077,
      "ilities": 2078,
      "Ġgive": 2079,
      "ott": 2080,
      "otic": 2081,
      "Ġlay": 2082,
      "Ġlaw": 2083,
      "Ġliving": 2084,
      "ĠApp": 2085,
      "ĠChe": 2086,
      "Ġaspect": 2087,
      "Ġhapp": 2088,
      "Ġseason": 2089,
      "ables": 2090,
      "pping": 2091,
      "Ġrather": 2092,
      "aces": 2093,
      "Ġprev": 2094,
      "osing": 2095,
      "osed": 2096,
      "Ġresil": 2097,
      "Ġmanage": 2098,
      "Ġmanufact": 2099,
      "Ġwee": 2100,
      "Ġgenet": 2101,
      "Ġaccept": 2102,
      "Ġdisord": 2103,
      "Ġdisaster": 2104,
      "dition": 2105,
      "Ġrecommend": 2106,
      "osexual": 2107,
      "Ġworkers": 2108,
      "Ġexplo": 2109,
      "Ġauth": 2110,
      "Ġmodels": 2111,
      "Ġprogress": 2112,
      "ĠComp": 2113,
      "Ġbusinesses": 2114,
      "Ġincrease": 2115,
      "Ġeffects": 2116,
      "iques": 2117,
      "Ġrevolution": 2118,
      "Ġpromote": 2119,
      "Ġphenotype": 2120,
      "Ġblockchain": 2121,
      "Ġprotect": 2122,
      "Ġperformance": 2123,
      "Ġstrategies": 2124,
      "Ġinitial": 2125,
      "Ġmusic": 2126,
      "Ġprofessional": 2127,
      "Ġmulti": 2128,
      "Ġpolicy": 2129,
      "Ġmelan": 2130,
      "iddle": 2131,
      "Ġseveral": 2132,
      "ĠCanada": 2133,
      "Ġstreng": 2134,
      "dom": 2135,
      "for": 2136,
      "iat": 2137,
      "nal": 2138,
      "sw": 2139,
      "ĠQ": 2140,
      "Ġtiss": 2141,
      "Ġtaken": 2142,
      "Ġaction": 2143,
      "ream": 2144,
      "Ġsense": 2145,
      "Ġsustain": 2146,
      "Ġcour": 2147,
      "nder": 2148,
      "ises": 2149,
      "Ġwhether": 2150,
      "oud": 2151,
      "arr": 2152,
      "Ġmo": 2153,
      "Ġmix": 2154,
      "Ġdaily": 2155,
      "omet": 2156,
      "Ġthin": 2157,
      "Ġground": 2158,
      "Ġnurs": 2159,
      "otes": 2160,
      "Ġlim": 2161,
      "Ġlif": 2162,
      "raph": 2163,
      "Ġste": 2164,
      "Ġstore": 2165,
      "ĠSc": 2166,
      "ĠShe": 2167,
      "amp": 2168,
      "Ġhere": 2169,
      "Ġsum": 2170,
      "illed": 2171,
      "Ġrout": 2172,
      "acking": 2173,
      "Ġenh": 2174,
      "Ġleaves": 2175,
      "Ġ200": 2176,
      "rie": 2177,
      "rial": 2178,
      "osis": 2179,
      "Ġabs": 2180,
      "ĠNational": 2181,
      "Ġbutton": 2182,
      "Ġtrade": 2183,
      "ountains": 2184,
      "Ġhelps": 2185,
      "Ġoffsp": 2186,
      "Ġemb": 2187,
      "Ġrare": 2188,
      "Ġhealthcare": 2189,
      "Ġpriv": 2190,
      "Ġknowledge": 2191,
      "Ġrelated": 2192,
      "Ġskills": 2193,
      "Ġminim": 2194,
      "Ġsimilar": 2195,
      "Ġalleles": 2196,
      "Ġgeneral": 2197,
      "Ġcentral": 2198,
      "Ġlower": 2199,
      "Ġequity": 2200,
      "Ġculture": 2201,
      "Ġclose": 2202,
      "Ġappear": 2203,
      "Ġscientific": 2204,
      "Ġdigital": 2205,
      "Ġeye": 2206,
      "Ġnetwork": 2207,
      "Ġachieve": 2208,
      "Ġespecially": 2209,
      "Ġlanguage": 2210,
      "pistasis": 2211,
      "Ġclick": 2212,
      "ĠKorean": 2213,
      "ĠService": 2214,
      "Ġhigher": 2215,
      "Ġoffspring": 2216,
      "PR": 2217,
      "TR": 2218,
      "ext": 2219,
      "gn": 2220,
      "ients": 2221,
      "til": 2222,
      "Ġ|": 2223,
      "Ġaud": 2224,
      "Ġsay": 2225,
      "Ġslow": 2226,
      "atform": 2227,
      "Ġcity": 2228,
      "Ġcogn": 2229,
      "Ġpan": 2230,
      "oring": 2231,
      "ane": 2232,
      "Ġwal": 2233,
      "Ġmov": 2234,
      "Ġmillion": 2235,
      "Ġdark": 2236,
      "ros": 2237,
      "rogen": 2238,
      "Ġbeg": 2239,
      "Ġgold": 2240,
      "Ġnut": 2241,
      "Ġnature": 2242,
      "Ġstep": 2243,
      "ĠAg": 2244,
      "igment": 2245,
      "sex": 2246,
      "Ġprob": 2247,
      "Ġconduct": 2248,
      "ĠCl": 2249,
      "ĠCol": 2250,
      "elf": 2251,
      "Ġwhite": 2252,
      "ĠMore": 2253,
      "Ġchick": 2254,
      "Ġrate": 2255,
      "ĠGen": 2256,
      "Ġpregn": 2257,
      "Ġcomput": 2258,
      "Ġtraditional": 2259,
      "Ġothers": 2260,
      "ĠUnder": 2261,
      "Ġperiod": 2262,
      "ograph": 2263,
      "Ġago": 2264,
      "Ġarg": 2265,
      "Ġentire": 2266,
      "Ġoffers": 2267,
      "oney": 2268,
      "Ġhealthy": 2269,
      "Ġsigns": 2270,
      "Ġfolic": 2271,
      "Ġvalu": 2272,
      "Ġprovides": 2273,
      "Ġ2025": 2274,
      "Ġpersonal": 2275,
      "Ġaffected": 2276,
      "Ġswitches": 2277,
      "Ġcauses": 2278,
      "Ġanti": 2279,
      "Ġidea": 2280,
      "Ġideas": 2281,
      "Ġcurrent": 2282,
      "ĠUniversity": 2283,
      "Ġdogs": 2284,
      "Ġmethods": 2285,
      "brid": 2286,
      "ggest": 2287,
      "ĠTechn": 2288,
      "Ġbroad": 2289,
      "Ġemploy": 2290,
      "Ġcells": 2291,
      "Ġliter": 2292,
      "clusion": 2293,
      "Ġmoral": 2294,
      "ĠWorld": 2295,
      "Ġsecure": 2296,
      "Ġdelivery": 2297,
      "osexuality": 2298,
      "cul": 2299,
      "cies": 2300,
      "ians": 2301,
      "like": 2302,
      "man": 2303,
      "most": 2304,
      "pose": 2305,
      "Ġiron": 2306,
      "Ġtar": 2307,
      "Ġage": 2308,
      "Ġcat": 2309,
      "Ġold": 2310,
      "alf": 2311,
      "isf": 2312,
      "ising": 2313,
      "Ġfost": 2314,
      "Ġfail": 2315,
      "icial": 2316,
      "icles": 2317,
      "Ġtoday": 2318,
      "asons": 2319,
      "oman": 2320,
      "ĠTr": 2321,
      "ching": 2322,
      "Ġlater": 2323,
      "ĠAr": 2324,
      "ĠAfter": 2325,
      "ĠCar": 2326,
      "Ġanimals": 2327,
      "Ġansw": 2328,
      "ĠMed": 2329,
      "thing": 2330,
      "ades": 2331,
      "cip": 2332,
      "Ġsuggest": 2333,
      "Ġview": 2334,
      "acity": 2335,
      "ĠDr": 2336,
      "ĠGo": 2337,
      "Ġpref": 2338,
      "Ġshall": 2339,
      "Ġcomplic": 2340,
      "Ġcompared": 2341,
      "Ġtext": 2342,
      "Ġpoor": 2343,
      "Ġspread": 2344,
      "Ġevent": 2345,
      "Ġevents": 2346,
      "Ġcoll": 2347,
      "Ġuseful": 2348,
      "Ġoverall": 2349,
      "Ġincludes": 2350,
      "Ġtwins": 2351,
      "Ġremain": 2352,
      "Ġinstall": 2353,
      "Ġapproaches": 2354,
      "ftware": 2355,
      "Ġbehaviors": 2356,
      "Ġvalue": 2357,
      "Ġproviding": 2358,
      "Ġsignificantly": 2359,
      "Ġconsumer": 2360,
      "Ġmeasure": 2361,
      "Ġdetailed": 2362,
      "Ġgenotype": 2363,
      "SSI": 2364,
      "ĠMont": 2365,
      "Ġpaper": 2366,
      "Ġaccount": 2367,
      "enetrance": 2368,
      "Ġmacroph": 2369,
      "Ġinsights": 2370,
      "OM": 2371,
      "aps": 2372,
      "cation": 2373,
      "cision": 2374,
      "ground": 2375,
      "iver": 2376,
      "mit": 2377,
      "rist": 2378,
      "word": 2379,
      "zz": 2380,
      "Ġ=": 2381,
      "Ġut": 2382,
      "Ġtum": 2383,
      "Ġtru": 2384,
      "inct": 2385,
      "onds": 2386,
      "Ġsl": 2387,
      "Ġsing": 2388,
      "Ġsomet": 2389,
      "Ġpost": 2390,
      "Ġpie": 2391,
      "org": 2392,
      "Ġways": 2393,
      "Ġfo": 2394,
      "Ġbacter": 2395,
      "icien": 2396,
      "arc": 2397,
      "Ġdam": 2398,
      "Ġdays": 2399,
      "Ġthus": 2400,
      "ĠTre": 2401,
      "Ġgreen": 2402,
      "cel": 2403,
      "ird": 2404,
      "ids": 2405,
      "olic": 2406,
      "olar": 2407,
      "ĠAre": 2408,
      "ĠSte": 2409,
      "ĠCent": 2410,
      "aged": 2411,
      "estine": 2412,
      "ĠPer": 2413,
      "Ġdeath": 2414,
      "ably": 2415,
      "ived": 2416,
      "ĠEconom": 2417,
      "Ġusers": 2418,
      "Ġpred": 2419,
      "Ġshap": 2420,
      "Ġnear": 2421,
      "Ġnever": 2422,
      "Ġcompet": 2423,
      "Ġcompanies": 2424,
      "acters": 2425,
      "izes": 2426,
      "Ġcontent": 2427,
      "Ġaddition": 2428,
      "astic": 2429,
      "Ġcapt": 2430,
      "elling": 2431,
      "Ġsoil": 2432,
      "ĠIts": 2433,
      "Ġkind": 2434,
      "ypic": 2435,
      "Ġwhole": 2436,
      "tens": 2437,
      "Ġdescrib": 2438,
      "ĠStud": 2439,
      "apter": 2440,
      "Ġcapacity": 2441,
      "Ġvariety": 2442,
      "Ġincreased": 2443,
      "rame": 2444,
      "Ġcharacters": 2445,
      "Ġconsidered": 2446,
      "Ġfunctions": 2447,
      "Ġeconomic": 2448,
      "Ġelements": 2449,
      "Ġveget": 2450,
      "Ġcosts": 2451,
      "Ġbuilding": 2452,
      "Ġcreating": 2453,
      "Ġprimary": 2454,
      "Ġauthentic": 2455,
      "Ġhazard": 2456,
      "Ġviol": 2457,
      "Ġtarget": 2458,
      "'t": 2459,
      "01": 2460,
      "HAL": 2461,
      "IS": 2462,
      "ament": 2463,
      "aun": 2464,
      "based": 2465,
      "che": 2466,
      "ections": 2467,
      "hn": 2468,
      "iot": 2469,
      "iop": 2470,
      "ked": 2471,
      "ma": 2472,
      "ned": 2473,
      "net": 2474,
      "rated": 2475,
      "tin": 2476,
      "vant": 2477,
      "Ġx": 2478,
      "Ġir": 2479,
      "ĨĴ": 2480,
      "Ġtaking": 2481,
      "Ġaware": 2482,
      "inated": 2483,
      "onst": 2484,
      "Ġsure": 2485,
      "Ġside": 2486,
      "Ġsays": 2487,
      "Ġsize": 2488,
      "Ġsix": 2489,
      "Ġcr": 2490,
      "Ġcy": 2491,
      "Ġcod": 2492,
      "itable": 2493,
      "Ġpri": 2494,
      "Ġpast": 2495,
      "Ġwind": 2496,
      "Ġfar": 2497,
      "Ġfru": 2498,
      "Ġfarm": 2499,
      "Ġban": 2500,
      "eding": 2501,
      "aries": 2502,
      "Ġmoney": 2503,
      "Ġharm": 2504,
      "Ġreach": 2505,
      "Ġrepl": 2506,
      "ĠTra": 2507,
      "ils": 2508,
      "Ġbeaut": 2509,
      "Ġgard": 2510,
      "irm": 2511,
      "Ġyet": 2512,
      "ĠSouth": 2513,
      "Ġwhy": 2514,
      "ĠMan": 2515,
      "ĠMany": 2516,
      "thal": 2517,
      "unking": 2518,
      "ĠPo": 2519,
      "Ġsecurity": 2520,
      "Ġvend": 2521,
      "Ġrul": 2522,
      "ĠHere": 2523,
      "erence": 2524,
      "Ġprepar": 2525,
      "Ġshar": 2526,
      "Ġcompre": 2527,
      "Ġintrodu": 2528,
      "Ġintestine": 2529,
      "ously": 2530,
      "Ġadditional": 2531,
      "ibr": 2532,
      "Ġimplement": 2533,
      "Ġapps": 2534,
      "Ġclass": 2535,
      "Ġspir": 2536,
      "Ġfeet": 2537,
      "Ġdeveloped": 2538,
      "Ġfoods": 2539,
      "Ġquality": 2540,
      "Ġgrowing": 2541,
      "Ġhighly": 2542,
      "ĠKe": 2543,
      "Ġpolit": 2544,
      "Ġinstit": 2545,
      "Ġinstru": 2546,
      "Ġcentury": 2547,
      "Ġreflect": 2548,
      "Ġallowing": 2549,
      "Ġseries": 2550,
      "Ġswitch": 2551,
      "Ġfully": 2552,
      "Ġchanging": 2553,
      "ĠâĨĴ": 2554,
      "Ġengagement": 2555,
      "Ġpositive": 2556,
      "Ġlogistics": 2557,
      "porate": 2558,
      "ĠEXAM": 2559,
      "Ġgroup": 2560,
      "Ġhighlights": 2561,
      "Ġcleaner": 2562,
      "Ġcustomer": 2563,
      "Ġinnovation": 2564,
      "Ġjobs": 2565,
      "ĠCommunity": 2566,
      "Ġestablish": 2567,
      "Ġtherapy": 2568,
      "ĠInfrastructure": 2569,
      "Ġagriculture": 2570,
      "Ġprinciples": 2571,
      "Ġcounsel": 2572,
      "ĠALLELE": 2573,
      "Ġmanufacture": 2574,
      "Ġcognitive": 2575,
      "ĠEXAMPLE": 2576,
      "aff": 2577,
      "by": 2578,
      "bor": 2579,
      "ban": 2580,
      "cor": 2581,
      "cise": 2582,
      "greg": 2583,
      "lands": 2584,
      "nect": 2585,
      "of": 2586,
      "over": 2587,
      "pro": 2588,
      "pid": 2589,
      "pox": 2590,
      "rate": 2591,
      "side": 2592,
      "view": 2593,
      "wh": 2594,
      "Ġ/": 2595,
      "Ġure": 2596,
      "reme": 2597,
      "Ġsun": 2598,
      "ert": 2599,
      "ency": 2600,
      "ories": 2601,
      "ana": 2602,
      "Ġtoo": 2603,
      "Ġtowards": 2604,
      "Ġmar": 2605,
      "Ġmas": 2606,
      "Ġdou": 2607,
      "let": 2608,
      "load": 2609,
      "Ġbelow": 2610,
      "Ġgain": 2611,
      "utes": 2612,
      "ster": 2613,
      "ides": 2614,
      "ĠIP": 2615,
      "seed": 2616,
      "mented": 2617,
      "ulate": 2618,
      "Ġconclusion": 2619,
      "Ġyoun": 2620,
      "ĠCross": 2621,
      "Ġalread": 2622,
      "Ġang": 2623,
      "teral": 2624,
      "Ġcannot": 2625,
      "Ġsector": 2626,
      "Ġhepat": 2627,
      "ademic": 2628,
      "istance": 2629,
      "ĠEdu": 2630,
      "ĠEpistasis": 2631,
      "Ġenergy": 2632,
      "ĠHigh": 2633,
      "Ġuses": 2634,
      "ĠDi": 2635,
      "Ġshare": 2636,
      "ĠLog": 2637,
      "hens": 2638,
      "Ġintake": 2639,
      "ĠâĢĺ": 2640,
      "Ġwords": 2641,
      "ĠOther": 2642,
      "Ġindic": 2643,
      "Ġuntil": 2644,
      "Ġkidney": 2645,
      "Ġclay": 2646,
      "Ġcloud": 2647,
      "Ġsports": 2648,
      "Ġfeather": 2649,
      "rying": 2650,
      "Ġarch": 2651,
      "ube": 2652,
      "ounds": 2653,
      "Ġneeded": 2654,
      "fully": 2655,
      "Ġsupply": 2656,
      "ĠAlthough": 2657,
      "Ġremove": 2658,
      "ronic": 2659,
      "Ġhomosexuality": 2660,
      "standing": 2661,
      "Ġlarger": 2662,
      "selves": 2663,
      "Ġgeneration": 2664,
      "Ġ50": 2665,
      "ĠExp": 2666,
      "Ġpaint": 2667,
      "Ġavail": 2668,
      "Ġcountry": 2669,
      "Ġtrends": 2670,
      "Ġimmedi": 2671,
      "Ġmeasures": 2672,
      "Ġmembers": 2673,
      "Ġterms": 2674,
      "Ġdepending": 2675,
      "Ġresponsible": 2676,
      "Ġsociety": 2677,
      "Ġscalp": 2678,
      "Ġparticularly": 2679,
      "Ġversion": 2680,
      "Ġpollution": 2681,
      "Ġpatterns": 2682,
      "Ġquickly": 2683,
      "Ġauthor": 2684,
      "Ġmultiple": 2685,
      "Ġtissue": 2686,
      "Ġpanels": 2687,
      "Ġchicken": 2688,
      "Ġcollabor": 2689,
      "ĠALLELES": 2690,
      "Ġalready": 2691,
      "Ġhepatitis": 2692,
      "25": 2693,
      "Th": 2694,
      "bit": 2695,
      "fl": 2696,
      "hol": 2697,
      "ik": 2698,
      "iology": 2699,
      "life": 2700,
      "nam": 2701,
      "rs": 2702,
      "right": 2703,
      "wood": 2704,
      "Ġ'": 2705,
      "rect": 2706,
      "repre": 2707,
      "Ġsin": 2708,
      "Ġsal": 2709,
      "Ġsong": 2710,
      "Ġscience": 2711,
      "ences": 2712,
      "Ġobs": 2713,
      "alu": 2714,
      "itute": 2715,
      "itrogen": 2716,
      "Ġpigment": 2717,
      "ork": 2718,
      "Ġbur": 2719,
      "Ġbring": 2720,
      "icro": 2721,
      "Ġmal": 2722,
      "Ġmut": 2723,
      "Ġhost": 2724,
      "Ġhives": 2725,
      "Ġreve": 2726,
      "ĠTw": 2727,
      "ĠTreat": 2728,
      "lock": 2729,
      "imin": 2730,
      "imization": 2731,
      "eter": 2732,
      "otypes": 2733,
      "Ġled": 2734,
      "Ġlands": 2735,
      "rad": 2736,
      "Ġstage": 2737,
      "Ġstake": 2738,
      "Ġstone": 2739,
      "Ġstacking": 2740,
      "igence": 2741,
      "ulations": 2742,
      "ĠSh": 2743,
      "Ġconnect": 2744,
      "ĠCo": 2745,
      "Ġalmost": 2746,
      "ows": 2747,
      "estyle": 2748,
      "Ġselect": 2749,
      "istent": 2750,
      "Ġchain": 2751,
      "ival": 2752,
      "ively": 2753,
      "Ġrich": 2754,
      "ĠEth": 2755,
      "Ġenough": 2756,
      "ĠDes": 2757,
      "ĠDomin": 2758,
      "Ġlot": 2759,
      "Ġ15": 2760,
      "Ġneg": 2761,
      "ried": 2762,
      "ĠLET": 2763,
      "ups": 2764,
      "Ġaccording": 2765,
      "ired": 2766,
      "Ġdisco": 2767,
      "Ġevidence": 2768,
      "Ġhowever": 2769,
      "Ġdeveloping": 2770,
      "Ġcollection": 2771,
      "ĠJo": 2772,
      "rought": 2773,
      "Ġtransp": 2774,
      "Ġlocation": 2775,
      "Ġformation": 2776,
      "ifying": 2777,
      "atively": 2778,
      "Ġmodern": 2779,
      "Ġprocesses": 2780,
      "Ġsubject": 2781,
      "Ġmining": 2782,
      "Ġensuring": 2783,
      "ysis": 2784,
      "Ġ2022": 2785,
      "Ġbirth": 2786,
      "Ġbackground": 2787,
      "Ġadvanced": 2788,
      "Ġimpacts": 2789,
      "Ġkingdom": 2790,
      "Ġfamil": 2791,
      "Ġeconomy": 2792,
      "Ġschools": 2793,
      "Ġcontinue": 2794,
      "Ġelement": 2795,
      "Ġquestion": 2796,
      "Ġapplications": 2797,
      "Ġidentifying": 2798,
      "Ġblack": 2799,
      "ield": 2800,
      "Ġsatisf": 2801,
      "Ġmaterials": 2802,
      "Ġillustration": 2803,
      "Ġfigure": 2804,
      "ĠUnderstanding": 2805,
      "Ġvaluable": 2806,
      "ĠCarib": 2807,
      "Ġdamage": 2808,
      "Ġhazardous": 2809,
      "reprene": 2810,
      "ĠLETHAL": 2811,
      "15": 2812,
      "OC": 2813,
      "PT": 2814,
      "cking": 2815,
      "cri": 2816,
      "go": 2817,
      "just": 2818,
      "lied": 2819,
      "pan": 2820,
      "pri": 2821,
      "pite": 2822,
      "vest": 2823,
      "Ġsil": 2824,
      "Ġsens": 2825,
      "erous": 2826,
      "enari": 2827,
      "Ġcut": 2828,
      "Ġcities": 2829,
      "Ġcame": 2830,
      "Ġbrought": 2831,
      "Ġinse": 2832,
      "Ġtox": 2833,
      "Ġmil": 2834,
      "Ġho": 2835,
      "ĠTest": 2836,
      "uses": 2837,
      "Ġname": 2838,
      "imes": 2839,
      "idents": 2840,
      "Ġstages": 2841,
      "ĠAct": 2842,
      "ĠIT": 2843,
      "Ġonce": 2844,
      "ĠSchool": 2845,
      "ĠScient": 2846,
      "ĠSince": 2847,
      "ĠCount": 2848,
      "ĠBank": 2849,
      "ĠMin": 2850,
      "unic": 2851,
      "ĠPsych": 2852,
      "ĠPorosity": 2853,
      "Ġdeep": 2854,
      "istan": 2855,
      "Ġvent": 2856,
      "Ġchance": 2857,
      "ĠHist": 2858,
      "Ġ16": 2859,
      "ĠRem": 2860,
      "ĠRome": 2861,
      "ours": 2862,
      "rip": 2863,
      "Ġplaces": 2864,
      "Ġcompon": 2865,
      "Ġresc": 2866,
      "Ġworks": 2867,
      "Ġado": 2868,
      "ĠOpt": 2869,
      "ologies": 2870,
      "Ġsoftware": 2871,
      "Ġkill": 2872,
      "Ġrecogn": 2873,
      "uebe": 2874,
      "Ġspray": 2875,
      "Ġevol": 2876,
      "ĠUse": 2877,
      "ograp": 2878,
      "Ġconserv": 2879,
      "Ġentreprene": 2880,
      "hybrid": 2881,
      "Ġoffering": 2882,
      "Ġscale": 2883,
      "Ġscenari": 2884,
      "ĠJu": 2885,
      "Ġupon": 2886,
      "ĠStart": 2887,
      "Ġtechniques": 2888,
      "Ġpatients": 2889,
      "Ġsolution": 2890,
      "Ġsurface": 2891,
      "Ġrelig": 2892,
      "Ġrelations": 2893,
      "Ġboost": 2894,
      "Ġboys": 2895,
      "imately": 2896,
      "Ġshowc": 2897,
      "Ġshows": 2898,
      "Ġappropri": 2899,
      "Ġgenerally": 2900,
      "Ġtreatments": 2901,
      "Ġmedications": 2902,
      "being": 2903,
      "Ġeditor": 2904,
      "ĠAnother": 2905,
      "Ġoperations": 2906,
      "Ġorganis": 2907,
      "Ġefforts": 2908,
      "Ġefficient": 2909,
      "ĠHealth": 2910,
      "Ġimmune": 2911,
      "Ġveh": 2912,
      "Ġissue": 2913,
      "Ġpowerful": 2914,
      "Ġcontainer": 2915,
      "Ġnetwor": 2916,
      "Ġencry": 2917,
      "Ġinternet": 2918,
      "Ġdevices": 2919,
      "Ġrelevant": 2920,
      "Ġflowers": 2921,
      "Ġhyper": 2922,
      "Ġadaptation": 2923,
      "Ġdemonst": 2924,
      "Ġopportunities": 2925,
      "Ġfeatures": 2926,
      "Ġbreakage": 2927,
      "Ġfrequently": 2928,
      "ependent": 2929,
      "Ġreceive": 2930,
      "Ġchemicals": 2931,
      "Ġresilience": 2932,
      "Ġgenetic": 2933,
      "Ġstrength": 2934,
      "ĠQuebe": 2935,
      "Ġcomplications": 2936,
      "Ġsingle": 2937,
      "iciency": 2938,
      "Ġgarden": 2939,
      "Ġsharp": 2940,
      "Ġcounseling": 2941,
      "Ġavailable": 2942,
      "ography": 2943,
      "Ġappropriate": 2944,
      "18": 2945,
      "19": 2946,
      "NA": 2947,
      "ee": 2948,
      "hood": 2949,
      "hold": 2950,
      "know": 2951,
      "lation": 2952,
      "min": 2953,
      "mat": 2954,
      "mission": 2955,
      "oks": 2956,
      "sure": 2957,
      "volution": 2958,
      "way": 2959,
      "ystem": 2960,
      "zing": 2961,
      "Ã©": 2962,
      "het": 2963,
      "Ġsam": 2964,
      "Ġself": 2965,
      "eration": 2966,
      "Ġcamp": 2967,
      "ites": 2968,
      "itation": 2969,
      "itions": 2970,
      "Ġpet": 2971,
      "orth": 2972,
      "orage": 2973,
      "Ġwin": 2974,
      "Ġwide": 2975,
      "Ġface": 2976,
      "Ġbas": 2977,
      "Ġbreat": 2978,
      "oura": 2979,
      "Ġmental": 2980,
      "Ġdone": 2981,
      "Ġdream": 2982,
      "Ġreality": 2983,
      "Ġever": 2984,
      "uson": 2985,
      "Ġge": 2986,
      "change": 2987,
      "rag": 2988,
      "raft": 2989,
      "âĢĵ": 2990,
      "Ġstat": 2991,
      "Ġstay": 2992,
      "Ġstate": 2993,
      "Ġstere": 2994,
      "ĠAf": 2995,
      "ĠAm": 2996,
      "ĠInt": 2997,
      "ĠTheir": 2998,
      "Ġproced": 2999,
      "Ġconver": 3000,
      "ĠCons": 3001,
      "Ġann": 3002,
      "eli": 3003,
      "ĠBale": 3004,
      "ĠMult": 3005,
      "ĠMass": 3006,
      "ĠMountains": 3007,
      "Ġitems": 3008,
      "Ġexer": 3009,
      "ĠPark": 3010,
      "Ġheart": 3011,
      "Ġvide": 3012,
      "Ġvary": 3013,
      "Ġvision": 3014,
      "ĠFund": 3015,
      "ĠFerg": 3016,
      "illions": 3017,
      "ĠWhy": 3018,
      "ĠEmp": 3019,
      "ĠGould": 3020,
      "ĠRis": 3021,
      "Ġplatform": 3022,
      "ĠLe": 3023,
      "ĠLud": 3024,
      "ĠLock": 3025,
      "osa": 3026,
      "ousing": 3027,
      "ended": 3028,
      "ĠNot": 3029,
      "Ġcontact": 3030,
      "ologists": 3031,
      "Ġaccur": 3032,
      "Ġacademic": 3033,
      "elligence": 3034,
      "Ġtrack": 3035,
      "Ġrecent": 3036,
      "Ġclient": 3037,
      "ountain": 3038,
      "Ġthemselves": 3039,
      "Ġtrunking": 3040,
      "Ġmean": 3041,
      "Ġmeet": 3042,
      "Ġunderlying": 3043,
      "ĠWho": 3044,
      "Ġemerg": 3045,
      "Ġintervent": 3046,
      "ĠGENES": 3047,
      "ĠChrist": 3048,
      "Ġsurv": 3049,
      "Ġdifference": 3050,
      "Ġlocations": 3051,
      "Ġremov": 3052,
      "Ġautom": 3053,
      "Ġrequires": 3054,
      "Ġattract": 3055,
      "Ġshowing": 3056,
      "Ġsubst": 3057,
      "Ġpresence": 3058,
      "ĠEnvironment": 3059,
      "Ġ188": 3060,
      "Ġowners": 3061,
      "Ġdesigned": 3062,
      "Ġsmaller": 3063,
      "Ġreview": 3064,
      "Ġserver": 3065,
      "Ġmonitor": 3066,
      "Ġphenotypes": 3067,
      "Ġestim": 3068,
      "Ġpractice": 3069,
      "Ġpractices": 3070,
      "Ġbehavioral": 3071,
      "Ġcultural": 3072,
      "Ġretrie": 3073,
      "ĠAmerica": 3074,
      "....": 3075,
      "ĠDevelop": 3076,
      "Ġtemperate": 3077,
      "Ġeyes": 3078,
      "Ġpurpose": 3079,
      "Ġinfluence": 3080,
      "Ġgroups": 3081,
      "Ġprotein": 3082,
      "ĠDiscordance": 3083,
      "Ġopportunity": 3084,
      "âĢ¦âĢ¦": 3085,
      "Ġconcern": 3086,
      "Ġmaintaining": 3087,
      "Ġexpected": 3088,
      "ĠEarth": 3089,
      "Ġaims": 3090,
      "Ġseparate": 3091,
      "Ġmonths": 3092,
      "Ġaspects": 3093,
      "Ġseasonal": 3094,
      "arrhe": 3095,
      "Ġmoist": 3096,
      "Ġsteps": 3097,
      "ĠMontana": 3098,
      "OMIN": 3099,
      "Ġtrue": 3100,
      "ĠStep": 3101,
      "Ġcomprehens": 3102,
      "Ġspirit": 3103,
      "Ġpolitical": 3104,
      "ĠEducation": 3105,
      "This": 3106,
      "ĠDominant": 3107,
      "ĠJohn": 3108,
      "Ġrescue": 3109,
      "ĠJuly": 3110,
      "ĠFerguson": 3111,
      "06": 3112,
      "23": 3113,
      "28": 3114,
      "30": 3115,
      "EE": 3116,
      "ESSI": 3117,
      "VI": 3118,
      "cape": 3119,
      "dration": 3120,
      "htm": 3121,
      "na": 3122,
      "overy": 3123,
      "rich": 3124,
      "tes": 3125,
      "water": 3126,
      "Â»": 3127,
      "ľĵ": 3128,
      "Ġtable": 3129,
      "Ġactions": 3130,
      "ina": 3131,
      "inary": 3132,
      "onid": 3133,
      "ened": 3134,
      "alle": 3135,
      "Ġpack": 3136,
      "oration": 3137,
      "ister": 3138,
      "anc": 3139,
      "ancy": 3140,
      "ico": 3141,
      "Ġdy": 3142,
      "Ġdru": 3143,
      "Ġhalf": 3144,
      "Ġreasons": 3145,
      "Ġthing": 3146,
      "ilonid": 3147,
      "Ġbeak": 3148,
      "Ġgave": 3149,
      "Ġnur": 3150,
      "impan": 3151,
      "uting": 3152,
      "ots": 3153,
      "oting": 3154,
      "Ġlat": 3155,
      "Ġlack": 3156,
      "Ġlaun": 3157,
      "Ġstra": 3158,
      "Ġstack": 3159,
      "Ġstory": 3160,
      "ĠAss": 3161,
      "Ġonline": 3162,
      "ĠCur": 3163,
      "ĠCong": 3164,
      "ĠBoth": 3165,
      "ĠPe": 3166,
      "ĠPr": 3167,
      "Ġseems": 3168,
      "Ġheating": 3169,
      "adata": 3170,
      "Ġdeb": 3171,
      "Ġvital": 3172,
      "ĠFin": 3173,
      "ĠFrom": 3174,
      "ĠFren": 3175,
      "pped": 3176,
      "Ġrates": 3177,
      "ĠEuro": 3178,
      "Ġenviron": 3179,
      "ĠGet": 3180,
      "ĠGra": 3181,
      "Ġ25": 3182,
      "Ġprep": 3183,
      "ĠRaspberries": 3184,
      "ĠLo": 3185,
      "ĠIntern": 3186,
      "osom": 3187,
      "osition": 3188,
      "Ġabove": 3189,
      "Ġresource": 3190,
      "Ġcontext": 3191,
      "ĠOf": 3192,
      "ĠOr": 3193,
      "ĠOver": 3194,
      "Ġmanaging": 3195,
      "Ġaccel": 3196,
      "ibly": 3197,
      "Ġindoor": 3198,
      "Ġalliance": 3199,
      "Ġrecovery": 3200,
      "ressivity": 3201,
      "ĠUs": 3202,
      "Ġperched": 3203,
      "Ġarr": 3204,
      "Ġparts": 3205,
      "reek": 3206,
      "Ġrapid": 3207,
      "Ġ30": 3208,
      "Ġbehind": 3209,
      "Ġcreation": 3210,
      "Ġimportance": 3211,
      "Ġ40": 3212,
      "Ġextreme": 3213,
      "Ġensures": 3214,
      "Ġlessons": 3215,
      "Ġprovided": 3216,
      "Ġ2020": 3217,
      "Ġhttp": 3218,
      "ĠConcordance": 3219,
      "Ġprevention": 3220,
      "Ġserious": 3221,
      "Ġoperation": 3222,
      "ĠBearded": 3223,
      "Ġphenotypic": 3224,
      "ĠUnited": 3225,
      "Ġactivity": 3226,
      "ĠPlan": 3227,
      "Ġocc": 3228,
      "Ġbiome": 3229,
      "Ġparents": 3230,
      "enetic": 3231,
      "Ġflu": 3232,
      "ING": 3233,
      "Ġparticip": 3234,
      "Ġdistinct": 3235,
      "Ġdragons": 3236,
      "Ġâľĵ": 3237,
      "Ġoccurs": 3238,
      "Ġinternational": 3239,
      "Ġfriends": 3240,
      "Ġfriendly": 3241,
      "Ġmessages": 3242,
      "ĠEXPR": 3243,
      "ĠResear": 3244,
      "Ġauthentication": 3245,
      "Ġtemperatures": 3246,
      "Ġguid": 3247,
      "Ġconcepts": 3248,
      "Ġbalance": 3249,
      "Ġjourney": 3250,
      "Ġforests": 3251,
      "ĠÂ«": 3252,
      "Ġreturns": 3253,
      "Ġbrain": 3254,
      "Ġdestro": 3255,
      "Ġgamete": 3256,
      "Ġbecoming": 3257,
      "Ġdirectly": 3258,
      "Ġsitu": 3259,
      "Ġdisorders": 3260,
      "iatives": 3261,
      "Ġthinking": 3262,
      "Ġsummer": 3263,
      "Ġmoving": 3264,
      "Ġutil": 3265,
      "Ġfoot": 3266,
      "Ġviolent": 3267,
      "Ġprior": 3268,
      "ĠQuebec": 3269,
      "ĠLockwood": 3270,
      "Ġretrieved": 3271,
      "Ġdrug": 3272,
      "ilonidal": 3273,
      "impanze": 3274,
      "ĠFrench": 3275,
      "ĠEurope": 3276,
      "ĠEXPRESSI": 3277,
      "16": 3278,
      "17": 3279,
      "200": 3280,
      "76": 3281,
      "IO": 3282,
      "MENDELIAN": 3283,
      "TD": 3284,
      "TY": 3285,
      "buch": 3286,
      "cu": 3287,
      "cast": 3288,
      "den": 3289,
      "ele": 3290,
      "ech": 3291,
      "iar": 3292,
      "iet": 3293,
      "iate": 3294,
      "mann": 3295,
      "norm": 3296,
      "yond": 3297,
      "Ġ0": 3298,
      "ĠX": 3299,
      "Ġz": 3300,
      "Ġtax": 3301,
      "Ġaff": 3302,
      "ints": 3303,
      "onse": 3304,
      "Ġsource": 3305,
      "eral": 3306,
      "erate": 3307,
      "eni": 3308,
      "Ġcir": 3309,
      "Ġcopy": 3310,
      "Ġoil": 3311,
      "Ġporosity": 3312,
      "Ġfat": 3313,
      "Ġbillion": 3314,
      "Ġinher": 3315,
      "edu": 3316,
      "edom": 3317,
      "ouch": 3318,
      "arily": 3319,
      "Ġtook": 3320,
      "Ġmale": 3321,
      "Ġmiddle": 3322,
      "lease": 3323,
      "Ġhospital": 3324,
      "Ġhousing": 3325,
      "asury": 3326,
      "Ġreally": 3327,
      "Ġet": 3328,
      "Ġeat": 3329,
      "vey": 3330,
      "Ġbegan": 3331,
      "Ġgir": 3332,
      "ceed": 3333,
      "rab": 3334,
      "Ġstre": 3335,
      "Ġstru": 3336,
      "Ġstorage": 3337,
      "ĠAa": 3338,
      "ĠImp": 3339,
      "ĠSw": 3340,
      "ĠSub": 3341,
      "ift": 3342,
      "ager": 3343,
      "ames": 3344,
      "ĠBen": 3345,
      "ĠMac": 3346,
      "ĠMost": 3347,
      "Ġexact": 3348,
      "Ġexchange": 3349,
      "estive": 3350,
      "ĠPenetrance": 3351,
      "Ġsex": 3352,
      "adne": 3353,
      "Ġdeg": 3354,
      "Ġdecl": 3355,
      "Ġsuitable": 3356,
      "Ġchapter": 3357,
      "Ġchronic": 3358,
      "Ġchimpanze": 3359,
      "ĠFood": 3360,
      "ĠWar": 3361,
      "Ġrat": 3362,
      "acc": 3363,
      "erences": 3364,
      "ĠGe": 3365,
      "Ġ12": 3366,
      "Ġshape": 3367,
      "ĠRich": 3368,
      "Ġplays": 3369,
      "Ġplastic": 3370,
      "ĠLet": 3371,
      "Ġcompar": 3372,
      "endel": 3373,
      "Ġnote": 3374,
      "Ġworth": 3375,
      "ĠNON": 3376,
      "ruction": 3377,
      "ĠOF": 3378,
      "Ġweight": 3379,
      "ologist": 3380,
      "ditions": 3381,
      "Ġtraits": 3382,
      "Ġrecur": 3383,
      "Ġclin": 3384,
      "Ġspring": 3385,
      "Ġevil": 3386,
      "Ġfear": 3387,
      "erved": 3388,
      "Ġoutc": 3389,
      "Ġconsult": 3390,
      "Ġcollect": 3391,
      "Ġdiverse": 3392,
      "Ġscar": 3393,
      "anging": 3394,
      "ipment": 3395,
      "ocol": 3396,
      "Ġhelping": 3397,
      "Ġemot": 3398,
      "Ġemph": 3399,
      "ĠKing": 3400,
      "Ġgoals": 3401,
      "comp": 3402,
      "Ġhairs": 3403,
      "Ġdifferences": 3404,
      "ĠAlso": 3405,
      "Ġformal": 3406,
      "Ġactually": 3407,
      "Ġthroughout": 3408,
      "ĠReg": 3409,
      "Ġmodel": 3410,
      "Ġexpert": 3411,
      "Ġsubsequ": 3412,
      "Ġcover": 3413,
      "Ġresearc": 3414,
      "Ġreducing": 3415,
      "Ġresulting": 3416,
      "Ġcenter": 3417,
      "Ġidentity": 3418,
      "Ġvalues": 3419,
      "Ġfinal": 3420,
      "ĠFrance": 3421,
      "Ġsett": 3422,
      "Ġrespir": 3423,
      "Ġresponse": 3424,
      "ĠNebuch": 3425,
      "Ġadded": 3426,
      "Ġaffects": 3427,
      "Ġ196": 3428,
      "Ġeveryone": 3429,
      "Ġadvance": 3430,
      "Ġreported": 3431,
      "Ġbiological": 3432,
      "riendly": 3433,
      "Ġtreated": 3434,
      "ĠDef": 3435,
      "Ġagreements": 3436,
      "Ġillness": 3437,
      "Ġanalysis": 3438,
      "Ġrights": 3439,
      "Ġobjects": 3440,
      "Ġcreates": 3441,
      "Ġdigestive": 3442,
      "Ġvisible": 3443,
      "Ġchoice": 3444,
      "Ġcorrect": 3445,
      "Ġoptions": 3446,
      "Ġinitiatives": 3447,
      "Ġmessaging": 3448,
      "Ġconstant": 3449,
      "Ġbelieve": 3450,
      "Ġmatter": 3451,
      "Ġcombination": 3452,
      "Ġproperly": 3453,
      "Ġeffectively": 3454,
      "ĠAccording": 3455,
      "Ġjournal": 3456,
      "Ġfemale": 3457,
      "Ġroots": 3458,
      "Ġeasier": 3459,
      "ĠCreated": 3460,
      "Ġgametes": 3461,
      "Ġbecomes": 3462,
      "Ġdetermine": 3463,
      "itude": 3464,
      "ĠCheck": 3465,
      "Ġweeks": 3466,
      "Ġcourse": 3467,
      "Ġnursing": 3468,
      "Ġlifestyle": 3469,
      "Ġroutine": 3470,
      "ĠMoreover": 3471,
      "Ġfostering": 3472,
      "Ġfailure": 3473,
      "ĠGovern": 3474,
      "zzar": 3475,
      "Ġpieces": 3476,
      "ĠTreasury": 3477,
      "tension": 3478,
      "iotics": 3479,
      "Ġureteral": 3480,
      "Ġyoung": 3481,
      "Ġimmediately": 3482,
      "Ġchickenpox": 3483,
      "ĠEthiop": 3484,
      "ĠHistory": 3485,
      "ĠAfric": 3486,
      "ĠLuddit": 3487,
      "ĠDevelopment": 3488,
      "arrhea": 3489,
      "OMINANCE": 3490,
      "Ġenvironments": 3491,
      "Ġgirls": 3492,
      "adnezzar": 3493,
      "ĠNebuchadnezzar": 3494,
      "05": 3495,
      "AR": 3496,
      "BS": 3497,
      "PP": 3498,
      "WIN": 3499,
      "ae": 3500,
      "bed": 3501,
      "ca": 3502,
      "cle": 3503,
      "ilo": 3504,
      "joy": 3505,
      "li": 3506,
      "mon": 3507,
      "more": 3508,
      "ners": 3509,
      "put": 3510,
      "rating": 3511,
      "tal": 3512,
      "time": 3513,
      "wide": 3514,
      "Ġ:": 3515,
      "Ġterm": 3516,
      "inity": 3517,
      "income": 3518,
      "onic": 3519,
      "onym": 3520,
      "Ġsent": 3521,
      "Ġsch": 3522,
      "Ġswe": 3523,
      "enced": 3524,
      "Ġcro": 3525,
      "Ġcele": 3526,
      "Ġoption": 3527,
      "itam": 3528,
      "Ġpub": 3529,
      "Ġpark": 3530,
      "Ġpict": 3531,
      "Ġpilonidal": 3532,
      "orn": 3533,
      "isions": 3534,
      "Ġwage": 3535,
      "Ġfib": 3536,
      "Ġfield": 3537,
      "Ġbig": 3538,
      "Ġinj": 3539,
      "Ġincor": 3540,
      "Ġmob": 3541,
      "Ġmales": 3542,
      "Ġdress": 3543,
      "Ġhouse": 3544,
      "omas": 3545,
      "omiting": 3546,
      "ĠTake": 3547,
      "ĠTWIN": 3548,
      "vered": 3549,
      "ila": 3550,
      "ush": 3551,
      "Ġbeyond": 3552,
      "Ġnitrogen": 3553,
      "cell": 3554,
      "imm": 3555,
      "chan": 3556,
      "stage": 3557,
      "olf": 3558,
      "Ġlist": 3559,
      "Ġlab": 3560,
      "Ġlink": 3561,
      "raction": 3562,
      "Ġstop": 3563,
      "Ġstaff": 3564,
      "igital": 3565,
      "ĠThen": 3566,
      "ĠSim": 3567,
      "ĠSur": 3568,
      "ĠSpe": 3569,
      "ĠScience": 3570,
      "ĠSolar": 3571,
      "Ġconne": 3572,
      "Ġconsequ": 3573,
      "ĠCa": 3574,
      "ĠCare": 3575,
      "ĠCreek": 3576,
      "Ġalong": 3577,
      "Ġhabit": 3578,
      "ĠBl": 3579,
      "ĠBar": 3580,
      "ĠBab": 3581,
      "ĠBach": 3582,
      "ĠMiddle": 3583,
      "ĠPENE": 3584,
      "Ġsection": 3585,
      "Ġsecre": 3586,
      "Ġsexual": 3587,
      "Ġheld": 3588,
      "erson": 3589,
      "Ġsuper": 3590,
      "ĠFurther": 3591,
      "ivil": 3592,
      "Ġran": 3593,
      "ighter": 3594,
      "ĠHum": 3595,
      "ĠHospital": 3596,
      "Ġlooking": 3597,
      "ĠGene": 3598,
      "Ġleave": 3599,
      "Ġlethal": 3600,
      "Ġ24": 3601,
      "artment": 3602,
      "pted": 3603,
      "Ġplum": 3604,
      "ĠInter": 3605,
      "izations": 3606,
      "Ġresistance": 3607,
      "ĠNTD": 3608,
      "Ġadverse": 3609,
      "Ġadjust": 3610,
      "ĠOur": 3611,
      "ĠOnce": 3612,
      "Ġweb": 3613,
      "Ġtele": 3614,
      "Ġapplied": 3615,
      "plant": 3616,
      "Ġspend": 3617,
      "ĠUOC": 3618,
      "ificial": 3619,
      "Ġstudent": 3620,
      "new": 3621,
      "Ġroll": 3622,
      "Ġcolon": 3623,
      "Ġmeat": 3624,
      "Ġmechan": 3625,
      "Ġdiarrhea": 3626,
      "Ġcommit": 3627,
      "Ġincluded": 3628,
      "Ġquant": 3629,
      "Ġinvestments": 3630,
      "Ġtechnological": 3631,
      "Ġexams": 3632,
      "Ġexamination": 3633,
      "Ġearl": 3634,
      "oked": 3635,
      "comfort": 3636,
      "Ġsolve": 3637,
      "Ġexpos": 3638,
      "Ġboard": 3639,
      "ĠAlways": 3640,
      "Ġauto": 3641,
      "Ġmetadata": 3642,
      "ĠRevolution": 3643,
      "Ġexperts": 3644,
      "Ġinstance": 3645,
      "ĠSection": 3646,
      "Ġcreated": 3647,
      "Ġreduced": 3648,
      "cycling": 3649,
      "ublication": 3650,
      "Ġcenters": 3651,
      "Ġmedication": 3652,
      "Ġvalid": 3653,
      "Ġlonger": 3654,
      "Ġpersonality": 3655,
      "Ġsymb": 3656,
      "Ġorganized": 3657,
      "ditionally": 3658,
      "Ġcrosses": 3659,
      "Ġpractical": 3660,
      "Ġbulbs": 3661,
      "Ġcontinued": 3662,
      "Ġdecision": 3663,
      "ĠSocial": 3664,
      "Ġconfidence": 3665,
      "Ġconfirm": 3666,
      "Ġdietary": 3667,
      "Ġobject": 3668,
      "ĠBritain": 3669,
      "Ġscientists": 3670,
      "Ġchoose": 3671,
      "Ġdiagnosis": 3672,
      "ylon": 3673,
      "Ġgenotypes": 3674,
      "Ġlittle": 3675,
      "Ġrocky": 3676,
      "Ġbelieved": 3677,
      "ugmented": 3678,
      "Ġamounts": 3679,
      "Ġdepends": 3680,
      "Ġpassword": 3681,
      "Ġcompletely": 3682,
      "Ġguide": 3683,
      "Ġletters": 3684,
      "Ġtalons": 3685,
      "Ġglass": 3686,
      "Ġprotection": 3687,
      "Ġdemand": 3688,
      "Ġorigin": 3689,
      "Ġera": 3690,
      "Ġpairs": 3691,
      "Ġexperiencing": 3692,
      "itudes": 3693,
      "Ġweek": 3694,
      "Ġmelanin": 3695,
      "force": 3696,
      "Ġsustainable": 3697,
      "Ġappearance": 3698,
      "TRANCE": 3699,
      "Ġnutrit": 3700,
      "ĠClimate": 3701,
      "Ġolder": 3702,
      "Ġanswers": 3703,
      "cipitation": 3704,
      "Ġmacrophages": 3705,
      "ĠEconomic": 3706,
      "ĠLogistics": 3707,
      "Ġfeathers": 3708,
      "Ġsinus": 3709,
      "ĠTwinning": 3710,
      "ĠRemember": 3711,
      "Ġcomponents": 3712,
      "Ġevolved": 3713,
      "Ġentrepreneurs": 3714,
      "Ġscenarios": 3715,
      "Ġencryption": 3716,
      "known": 3717,
      "ĠEmpire": 3718,
      "Ġmoisture": 3719,
      "Ġcomprehensive": 3720,
      "ĠInternational": 3721,
      "ĠResearch": 3722,
      "Ġdestroy": 3723,
      "Ġratio": 3724,
      "ĠBabylon": 3725,
      "ĠBachmann": 3726,
      "ĠPENETRANCE": 3727,
      "DD": 3728,
      "ES": 3729,
      "IF": 3730,
      "LTI": 3731,
      "MB": 3732,
      "NING": 3733,
      "OP": 3734,
      "OR": 3735,
      "ULTI": 3736,
      "aim": 3737,
      "aign": 3738,
      "cer": 3739,
      "cum": 3740,
      "dent": 3741,
      "gest": 3742,
      "ha": 3743,
      "nn": 3744,
      "no": 3745,
      "oic": 3746,
      "ooth": 3747,
      "sh": 3748,
      "son": 3749,
      "then": 3750,
      "ule": 3751,
      "wise": 3752,
      "ĠZ": 3753,
      "Ġtips": 3754,
      "Ġaver": 3755,
      "rel": 3756,
      "Ġslight": 3757,
      "ero": 3758,
      "eries": 3759,
      "erated": 3760,
      "erred": 3761,
      "eng": 3762,
      "atric": 3763,
      "itol": 3764,
      "itance": 3765,
      "Ġpen": 3766,
      "Ġpere": 3767,
      "isation": 3768,
      "Ġwound": 3769,
      "Ġwoman": 3770,
      "Ġfit": 3771,
      "Ġfil": 3772,
      "Ġbar": 3773,
      "Ġbow": 3774,
      "Ġbab": 3775,
      "Ġbase": 3776,
      "Ġbound": 3777,
      "edic": 3778,
      "Ġmaster": 3779,
      "Ġmention": 3780,
      "Ġmillions": 3781,
      "Ġdivid": 3782,
      "rog": 3783,
      "Ġhol": 3784,
      "Ġreactions": 3785,
      "Ġthreat": 3786,
      "Ġthird": 3787,
      "Ġgre": 3788,
      "iment": 3789,
      "iring": 3790,
      "irms": 3791,
      "Ġlives": 3792,
      "Ġlines": 3793,
      "Ġstim": 3794,
      "Ġstool": 3795,
      "Ġstock": 3796,
      "ĠAut": 3797,
      "igate": 3798,
      "ĠII": 3799,
      "ĠIL": 3800,
      "Ġonto": 3801,
      "mentia": 3802,
      "Ġpros": 3803,
      "Ġproject": 3804,
      "ĠSupp": 3805,
      "ĠBusiness": 3806,
      "ĠMULTI": 3807,
      "Ġitself": 3808,
      "estic": 3809,
      "ĠPa": 3810,
      "ĠPak": 3811,
      "Ġsea": 3812,
      "ading": 3813,
      "Ġdecre": 3814,
      "Ġdementia": 3815,
      "Ġsug": 3816,
      "Ġvs": 3817,
      "Ġvitam": 3818,
      "Ġvomiting": 3819,
      "ĠFe": 3820,
      "ĠFre": 3821,
      "ĠFirst": 3822,
      "ĠWater": 3823,
      "aced": 3824,
      "achers": 3825,
      "ĠExt": 3826,
      "ĠEven": 3827,
      "Ġenjoy": 3828,
      "ĠDet": 3829,
      "ĠDuring": 3830,
      "ĠDigital": 3831,
      "Ġlove": 3832,
      "Ġ13": 3833,
      "Ġ--": 3834,
      "Ġprecipitation": 3835,
      "Ġneigh": 3836,
      "Ġneck": 3837,
      "ĠRE": 3838,
      "ĠRep": 3839,
      "ĠRuss": 3840,
      "ĠLit": 3841,
      "ĠLow": 3842,
      "ĠInvest": 3843,
      "ects": 3844,
      "Ġintric": 3845,
      "Ġintelligence": 3846,
      "Ġabnorm": 3847,
      "Ġrespect": 3848,
      "Ġresidents": 3849,
      "Ġcontrast": 3850,
      "Ġcontains": 3851,
      "Ġadult": 3852,
      "Ġmanaged": 3853,
      "licate": 3854,
      "Ġteach": 3855,
      "rowd": 3856,
      "Ġunits": 3857,
      "Ġrecently": 3858,
      "aving": 3859,
      "play": 3860,
      "Ġspeed": 3861,
      "Ġspeech": 3862,
      "ĠUr": 3863,
      "Ġstarted": 3864,
      "assic": 3865,
      "Ġdevelopers": 3866,
      "Ġofficial": 3867,
      "Ġdivers": 3868,
      "Ġfunds": 3869,
      "Ġcommunities": 3870,
      "ĠJust": 3871,
      "ĠStates": 3872,
      "Ġinvesting": 3873,
      "Ġtechnologies": 3874,
      "Ġexamples": 3875,
      "Ġraise": 3876,
      "Ġraised": 3877,
      "ricul": 3878,
      "Ġinteract": 3879,
      "Ġgoal": 3880,
      "Ġsave": 3881,
      "comes": 3882,
      "ĠCho": 3883,
      "phone": 3884,
      "ANs": 3885,
      "Ġregard": 3886,
      "Ġremember": 3887,
      "Ġformed": 3888,
      "Ġfollic": 3889,
      "ront": 3890,
      "Ġinstead": 3891,
      "ĠComple": 3892,
      "Ġshown": 3893,
      "Ġcream": 3894,
      "Ġprescrib": 3895,
      "Ġinvolve": 3896,
      "Ġdepic": 3897,
      "ublican": 3898,
      "Ġsimpl": 3899,
      "Ġdraw": 3900,
      "Ġ186": 3901,
      "Ġprovider": 3902,
      "ĠProper": 3903,
      "ĠCont": 3904,
      "Ġpainting": 3905,
      "Ġequal": 3906,
      "Ġdefin": 3907,
      "Ġdefined": 3908,
      "Ġcausing": 3909,
      "Ġoperational": 3910,
      "Ġantib": 3911,
      "Ġhistor": 3912,
      "Ġseeking": 3913,
      "Ġhandling": 3914,
      "Ġfollowed": 3915,
      "Ġefficiency": 3916,
      "Ġfocusing": 3917,
      "ĠAdditionally": 3918,
      "Ġblocks": 3919,
      "Ġgovernments": 3920,
      "Ġbenefit": 3921,
      "Ġappears": 3922,
      "Ġ70": 3923,
      "Ġchoices": 3924,
      "Ġencoura": 3925,
      "Ġfeelings": 3926,
      "Ġdiagnose": 3927,
      "Ġpresented": 3928,
      "Ġtypical": 3929,
      "ylitol": 3930,
      "Ġposition": 3931,
      "Ġsuccessful": 3932,
      "Ġreading": 3933,
      "Ġexplain": 3934,
      "Ġcalcul": 3935,
      "ĠPrevent": 3936,
      "Ġletter": 3937,
      "Ġpsychological": 3938,
      "Ġgrant": 3939,
      "Ġintegration": 3940,
      "Ġestablished": 3941,
      "afe": 3942,
      "Ġsecondary": 3943,
      "Ġagricultural": 3944,
      "Ġwriting": 3945,
      "Ġstructures": 3946,
      "ĠInstitute": 3947,
      "ĠExample": 3948,
      "ĠImage": 3949,
      "Ġmachines": 3950,
      "Ġlayer": 3951,
      "Ġdisorder": 3952,
      "Ġexplore": 3953,
      "Ġmixed": 3954,
      "Ġenhance": 3955,
      "Ġprivate": 3956,
      "Ġprivacy": 3957,
      "Ġslowly": 3958,
      "Ġgolden": 3959,
      "Ġliterature": 3960,
      "Ġsuggests": 3961,
      "mitted": 3962,
      "Ġsomething": 3963,
      "Ġbacteria": 3964,
      "Ġauthenticators": 3965,
      "Ġirrit": 3966,
      "Ġcode": 3967,
      "Ġfruits": 3968,
      "ĠManagement": 3969,
      "Ġvendor": 3970,
      "Ġinstitutions": 3971,
      "ĠExpressivity": 3972,
      "ĠTreatment": 3973,
      "Ġfamilies": 3974,
      "ĠScientific": 3975,
      "Ġventure": 3976,
      "Ġreligious": 3977,
      "Ġnetworks": 3978,
      "Ġcampaign": 3979,
      "Ġstereotypes": 3980,
      "Ġexercise": 3981,
      "ĠFunding": 3982,
      "ĠEnvironmental": 3983,
      "VITY": 3984,
      "html": 3985,
      "Ġnurse": 3986,
      "Ġrapidly": 3987,
      "ĠEXPRESSIVITY": 3988,
      "Ġstrugg": 3989,
      "Ġsubsequent": 3990,
      "Ġresearchers": 3991,
      "ĠLuddites": 3992,
      "Ġpublished": 3993,
      "Ġmobile": 3994,
      "ĠTWINNING": 3995,
      "Ġautoimm": 3996,
      "Ġperenn": 3997,
      "ĠMULTIPLE": 3998,
      "ĠPakistan": 3999,
      ");": 4000,
      ".)": 4001,
      "43": 4002,
      "74": 4003,
      "BC": 4004,
      "CC": 4005,
      "IP": 4006,
      "Pop": 4007,
      "WS": 4008,
      "Washington": 4009,
      "ah": 4010,
      "bre": 4011,
      "ball": 4012,
      "cal": 4013,
      "can": 4014,
      "eer": 4015,
      "ees": 4016,
      "eper": 4017,
      "gical": 4018,
      "haps": 4019,
      "iene": 4020,
      "ober": 4021,
      "pin": 4022,
      "set": 4023,
      "tics": 4024,
      "uge": 4025,
      "uck": 4026,
      "vity": 4027,
      "xid": 4028,
      "ximately": 4029,
      "Ġi": 4030,
      "Ġing": 4031,
      "Ġtas": 4032,
      "Ġtakes": 4033,
      "Ġtask": 4034,
      "Ġahe": 4035,
      "Ġaway": 4036,
      "infl": 4037,
      "hemat": 4038,
      "real": 4039,
      "Ġsn": 4040,
      "Ġsod": 4041,
      "Ġsite": 4042,
      "atives": 4043,
      "attle": 4044,
      "atching": 4045,
      "Ġcry": 4046,
      "estern": 4047,
      "Ġpus": 4048,
      "Ġpage": 4049,
      "ison": 4050,
      "Ġwood": 4051,
      "Ġwages": 4052,
      "Ġwarm": 4053,
      "Ġfight": 4054,
      "Ġfish": 4055,
      "Ġfair": 4056,
      "Ġfres": 4057,
      "Ġfaster": 4058,
      "Ġframe": 4059,
      "Ġfirms": 4060,
      "Ġben": 4061,
      "Ġbod": 4062,
      "edia": 4063,
      "ica": 4064,
      "ioneer": 4065,
      "aring": 4066,
      "arge": 4067,
      "Ġtold": 4068,
      "Ġtotal": 4069,
      "Ġmot": 4070,
      "Ġmiss": 4071,
      "Ġmission": 4072,
      "Ġmiles": 4073,
      "leg": 4074,
      "ley": 4075,
      "Ġhar": 4076,
      "Ġreform": 4077,
      "Ġthr": 4078,
      "Ġthous": 4079,
      "Ġgay": 4080,
      "chase": 4081,
      "eth": 4082,
      "Ġlun": 4083,
      "Ġstri": 4084,
      "ĠAb": 4085,
      "ĠArab": 4086,
      "ĠIdent": 4087,
      "sem": 4088,
      "Ġones": 4089,
      "Ġconcent": 4090,
      "Ġareata": 4091,
      "Ġasked": 4092,
      "agan": 4093,
      "ured": 4094,
      "ĠBb": 4095,
      "ĠMay": 4096,
      "Ġitch": 4097,
      "unately": 4098,
      "Ġcomfort": 4099,
      "Ġexcell": 4100,
      "ĠPLE": 4101,
      "Ġseem": 4102,
      "Ġheav": 4103,
      "Ġdeeper": 4104,
      "Ġsubs": 4105,
      "Ġvibr": 4106,
      "ĠFig": 4107,
      "ĠFam": 4108,
      "ored": 4109,
      "illi": 4110,
      "key": 4111,
      "que": 4112,
      "ques": 4113,
      "quare": 4114,
      "ĠWhether": 4115,
      "Ġround": 4116,
      "acks": 4117,
      "ached": 4118,
      "ĠEm": 4119,
      "ĠEra": 4120,
      "ĠEvery": 4121,
      "ude": 4122,
      "rome": 4123,
      "ĠDo": 4124,
      "ĠDNA": 4125,
      "Ġlost": 4126,
      "ĠGPT": 4127,
      "Ġ11": 4128,
      "Ġshared": 4129,
      "ĠLanc": 4130,
      "osc": 4131,
      "oses": 4132,
      "ffer": 4133,
      "Ġabd": 4134,
      "uplicate": 4135,
      "ĠNo": 4136,
      "ĠNon": 4137,
      "Ġcontract": 4138,
      "aste": 4139,
      "orship": 4140,
      "Ġinfections": 4141,
      "Ġdiscomfort": 4142,
      "Ġdoing": 4143,
      "Ġapply": 4144,
      "Ġtravel": 4145,
      "avor": 4146,
      "ression": 4147,
      "Ġevalu": 4148,
      "akers": 4149,
      "Ġoutlin": 4150,
      "ypically": 4151,
      "Ġstarts": 4152,
      "Ġscr": 4153,
      "Ġscore": 4154,
      "Ġpartly": 4155,
      "Ġparties": 4156,
      "ĠJes": 4157,
      "ĠJan": 4158,
      "Ġquite": 4159,
      "ygiene": 4160,
      "Ġrad": 4161,
      "Ġsaw": 4162,
      "Ġsurge": 4163,
      "ozygotes": 4164,
      "Ġreli": 4165,
      "Ġrelie": 4166,
      "Ġtransactions": 4167,
      "Ġregion": 4168,
      "Ġmetab": 4169,
      "ĠSecond": 4170,
      "Ġcredit": 4171,
      "Ġreduces": 4172,
      "Ġextra": 4173,
      "ternal": 4174,
      "Ġdepos": 4175,
      "Ġcompleted": 4176,
      "Ġleaders": 4177,
      "Ġallev": 4178,
      "Ġdrain": 4179,
      "olden": 4180,
      "Ġpossess": 4181,
      "ĠProf": 4182,
      "ĠProg": 4183,
      "Ġrevision": 4184,
      "Ġpreventing": 4185,
      "Ġequipment": 4186,
      "Ġadding": 4187,
      "Ġhands": 4188,
      "ĠWeb": 4189,
      "Ġtopics": 4190,
      "omenon": 4191,
      "Ġbeneficial": 4192,
      "Ġclos": 4193,
      "Ġappeared": 4194,
      "Ġnorms": 4195,
      "Ġprotocol": 4196,
      "Ġviral": 4197,
      "Ġdistrib": 4198,
      "Ġcarb": 4199,
      "Ġstrategic": 4200,
      "Ġfreedom": 4201,
      "Ġempire": 4202,
      "ĠIndia": 4203,
      "Ġconstruction": 4204,
      "Ġdevice": 4205,
      "Ġimprovement": 4206,
      "Ġbright": 4207,
      "Ġclearly": 4208,
      "Ġfourth": 4209,
      "Ġthoughts": 4210,
      "Ġstandards": 4211,
      "ĠSpan": 4212,
      "Ġhighlighting": 4213,
      "Ġrelease": 4214,
      "Ġplayed": 4215,
      "Ġpaid": 4216,
      "ĠPrepar": 4217,
      "Ġrecords": 4218,
      "Ġtalk": 4219,
      "Ġfaced": 4220,
      "Ġfemales": 4221,
      "Ġhardware": 4222,
      "Ġelimin": 4223,
      "Ġconcer": 4224,
      "Ġoriginal": 4225,
      "Ġsuffering": 4226,
      "Ġanalyzing": 4227,
      "Ġincreasingly": 4228,
      "Ġfunctional": 4229,
      "Ġmovement": 4230,
      "ĠInstead": 4231,
      "Ġexpression": 4232,
      "Ġbrand": 4233,
      "Ġmaterial": 4234,
      "ĠExamples": 4235,
      "Ġevolutionary": 4236,
      "Ġwildlife": 4237,
      "Ġmachine": 4238,
      "Ġreasoning": 4239,
      "Ġrecommended": 4240,
      "Ġsustainability": 4241,
      "Ġabsor": 4242,
      "Ġminimum": 4243,
      "TROP": 4244,
      "Ġwalking": 4245,
      "Ġbeginning": 4246,
      "Ġpregnant": 4247,
      "Ġpregnancy": 4248,
      "Ġcomputer": 4249,
      "Ġargues": 4250,
      "ĠTechnology": 4251,
      "Ġemployees": 4252,
      "Ġcattle": 4253,
      "Ġmacrophage": 4254,
      "Ġtumors": 4255,
      "Ġsometimes": 4256,
      "Ġshaping": 4257,
      "Ġvegetables": 4258,
      "ISM": 4259,
      "amental": 4260,
      "Ġawareness": 4261,
      "Ġbanks": 4262,
      "Ġbeauty": 4263,
      "Ġpreparation": 4264,
      "ĠKeep": 4265,
      "gregation": 4266,
      "Ġdoub": 4267,
      "Ġangel": 4268,
      "Ġlandscape": 4269,
      "Ġtransport": 4270,
      "cription": 4271,
      "Ġinsecurity": 4272,
      "Ġtoxins": 4273,
      "ĠCounty": 4274,
      "Ġadopt": 4275,
      "Ġconservation": 4276,
      "Ġvehicles": 4277,
      "Ġwinter": 4278,
      "Ġprocedure": 4279,
      "ĠRisk": 4280,
      "Ġplatforms": 4281,
      "Ġlaunch": 4282,
      "Ġstackable": 4283,
      "ĠCongress": 4284,
      "ĠPlanning": 4285,
      "Ġoccas": 4286,
      "Ġdrugs": 4287,
      "IOTROP": 4288,
      "Ġchimpanzees": 4289,
      "ĠRichard": 4290,
      "ĠGovernment": 4291,
      "ĠEthiopian": 4292,
      "Ġcelebr": 4293,
      "ĠHuman": 4294,
      "Ġplumage": 4295,
      "Ġexposure": 4296,
      "Ġslightly": 4297,
      "Ġmentioned": 4298,
      "Ġneighbor": 4299,
      "Ġhistorical": 4300,
      "Ġtasks": 4301,
      "Ġahead": 4302,
      "Ġfresh": 4303,
      "ĠPLEIOTROP": 4304,
      "Ġvibrant": 4305,
      "ĠPLEIOTROPISM": 4306,
      ")(": 4307,
      "04": 4308,
      "11": 4309,
      "24": 4310,
      "AI": 4311,
      "IER": 4312,
      "MS": 4313,
      "ND": 4314,
      "Publication": 4315,
      "SM": 4316,
      "TE": 4317,
      "blog": 4318,
      "cause": 4319,
      "ding": 4320,
      "econom": 4321,
      "friendly": 4322,
      "ging": 4323,
      "gence": 4324,
      "house": 4325,
      "iation": 4326,
      "lu": 4327,
      "lim": 4328,
      "making": 4329,
      "oss": 4330,
      "off": 4331,
      "ohybrid": 4332,
      "pa": 4333,
      "riven": 4334,
      "sc": 4335,
      "such": 4336,
      "safe": 4337,
      "uary": 4338,
      "uild": 4339,
      "win": 4340,
      "where": 4341,
      "xim": 4342,
      "year": 4343,
      "Ġver": 4344,
      "Ĺı": 4345,
      "Ġten": 4346,
      "Ġtit": 4347,
      "Ġtend": 4348,
      "Ġtry": 4349,
      "Ġtack": 4350,
      "Ġtouch": 4351,
      "Ġast": 4352,
      "Ġtheory": 4353,
      "Ġseni": 4354,
      "era": 4355,
      "erre": 4356,
      "ening": 4357,
      "Ġcore": 4358,
      "Ġcivil": 4359,
      "aly": 4360,
      "aled": 4361,
      "itco": 4362,
      "Ġpick": 4363,
      "anch": 4364,
      "aniel": 4365,
      "Ġfing": 4366,
      "Ġfilled": 4367,
      "Ġbasis": 4368,
      "Ġbott": 4369,
      "Ġine": 4370,
      "Ġincome": 4371,
      "Ġdil": 4372,
      "Ġdiv": 4373,
      "Ġdedic": 4374,
      "rote": 4375,
      "enty": 4376,
      "lex": 4377,
      "Ġhot": 4378,
      "Ġhund": 4379,
      "asive": 4380,
      "asma": 4381,
      "omb": 4382,
      "Ġeight": 4383,
      "ilst": 4384,
      "Ġgiving": 4385,
      "Ġnort": 4386,
      "Ġnations": 4387,
      "Ġnav": 4388,
      "utch": 4389,
      "ethe": 4390,
      "etary": 4391,
      "idil": 4392,
      "oll": 4393,
      "olars": 4394,
      "uration": 4395,
      "otype": 4396,
      "Ġlate": 4397,
      "Ġliver": 4398,
      "Ġsty": 4399,
      "ĠAust": 4400,
      "ĠAlopecia": 4401,
      "ĠAWS": 4402,
      "ĠAND": 4403,
      "ulner": 4404,
      "ĠSher": 4405,
      "ĠSystem": 4406,
      "ĠSagan": 4407,
      "ĠCor": 4408,
      "ĠCity": 4409,
      "Ġaltern": 4410,
      "Ġancient": 4411,
      "hern": 4412,
      "ĠBal": 4413,
      "ĠBiology": 4414,
      "ĠBork": 4415,
      "ĠBlock": 4416,
      "ĠBitco": 4417,
      "ĠMa": 4418,
      "ĠMe": 4419,
      "ĠMendel": 4420,
      "una": 4421,
      "Ġexc": 4422,
      "Ġexcessive": 4423,
      "ĠPh": 4424,
      "ĠPost": 4425,
      "ĠPaaS": 4426,
      "Ġhealing": 4427,
      "adget": 4428,
      "ciation": 4429,
      "antial": 4430,
      "aintain": 4431,
      "istration": 4432,
      "Ġchrom": 4433,
      "ĠFore": 4434,
      "ĠFact": 4435,
      "Ġrule": 4436,
      "ĠDay": 4437,
      "ĠDros": 4438,
      "ĠDutch": 4439,
      "ume": 4440,
      "umes": 4441,
      "ĠGu": 4442,
      "Ġ14": 4443,
      "Ġneuro": 4444,
      "opath": 4445,
      "ĠRet": 4446,
      "ĠRoman": 4447,
      "ĠLif": 4448,
      "ĠLast": 4449,
      "Ġimages": 4450,
      "Ġcompl": 4451,
      "active": 4452,
      "Ġnotice": 4453,
      "Ġwash": 4454,
      "Ġabilities": 4455,
      "ĠNow": 4456,
      "ĠNote": 4457,
      "ĠNorth": 4458,
      "ĠThose": 4459,
      "ĠThough": 4460,
      "Ġadmin": 4461,
      "astro": 4462,
      "Ġmanner": 4463,
      "lict": 4464,
      "Ġdisplay": 4465,
      "Ġtech": 4466,
      "Ġteachers": 4467,
      "rows": 4468,
      "Ġdocu": 4469,
      "ignant": 4470,
      "Ġotherwise": 4471,
      "Ġpoly": 4472,
      "Ġpoints": 4473,
      "Ġfeed": 4474,
      "ification": 4475,
      "Ġoutcomes": 4476,
      "cluding": 4477,
      "ffective": 4478,
      "Ġtrig": 4479,
      "ĠYork": 4480,
      "Ġscreen": 4481,
      "ĠWhite": 4482,
      "ocy": 4483,
      "Ġrise": 4484,
      "Ġtechnique": 4485,
      "ĠKnow": 4486,
      "ĠKidney": 4487,
      "Ġreprodu": 4488,
      "Ġrepublican": 4489,
      "ĠVir": 4490,
      "ĠMODIF": 4491,
      "Ġsystemic": 4492,
      "ought": 4493,
      "ozoic": 4494,
      "coma": 4495,
      "Ġsolving": 4496,
      "ozygote": 4497,
      "Ġtranslation": 4498,
      "Ġtransplant": 4499,
      "Ġregulations": 4500,
      "ĠRecycling": 4501,
      "Ġmodify": 4502,
      "Ġsubjects": 4503,
      "Ġcoat": 4504,
      "Ġleads": 4505,
      "world": 4506,
      "Ġworldwide": 4507,
      "Ġphenomenon": 4508,
      "Ġdominance": 4509,
      "Ġpossibly": 4510,
      "Ġrefine": 4511,
      "bean": 4512,
      "ĠTherefore": 4513,
      "Ġessays": 4514,
      "Ġsetting": 4515,
      "ĠContin": 4516,
      "Ġrespond": 4517,
      "Ġservers": 4518,
      "Ġartificial": 4519,
      "Ġpotentially": 4520,
      "Ġsocialization": 4521,
      "Ġsignificance": 4522,
      "Ġnumbers": 4523,
      "Ġ199": 4524,
      "Ġbuil": 4525,
      "ĠBefore": 4526,
      "Ġcontributing": 4527,
      "Ġrecycl": 4528,
      "ioxid": 4529,
      "rapy": 4530,
      "Ġpromotes": 4531,
      "Ġpromoting": 4532,
      "Ġindustries": 4533,
      "Ġinside": 4534,
      "ralia": 4535,
      "Ġtopic": 4536,
      "Ġeffort": 4537,
      "Ġgradu": 4538,
      "ĠPlant": 4539,
      "Ġbiology": 4540,
      "ĠAmericans": 4541,
      "Ġcontinu": 4542,
      "Ġelev": 4543,
      "Ġgreater": 4544,
      "Ġdecisions": 4545,
      "...": 4546,
      "Ġchallenge": 4547,
      "Ġparad": 4548,
      "Ġ2010": 4549,
      "Ġ2012": 4550,
      "Ġstrategy": 4551,
      "ĠâĹı": 4552,
      "ediatric": 4553,
      "Ġbrother": 4554,
      "Ġvisual": 4555,
      "Ġcorporate": 4556,
      "Ġnaturally": 4557,
      "Ġinternal": 4558,
      "Ġmessage": 4559,
      "Ġimprovements": 4560,
      "Ġ90": 4561,
      "Ġdriven": 4562,
      "Ġexploring": 4563,
      "Ġallergic": 4564,
      "oxidil": 4565,
      "Ġachieved": 4566,
      "Ġstanding": 4567,
      "Ġdiscussed": 4568,
      "Ġinterested": 4569,
      "Ġregularly": 4570,
      "ETA": 4571,
      "Ġglau": 4572,
      "Ġvoltm": 4573,
      "augh": 4574,
      "Ġelite": 4575,
      "Ġanalytics": 4576,
      "ĠCredit": 4577,
      "ophila": 4578,
      "Ġkeeping": 4579,
      "Ġexperiences": 4580,
      "Ġdetermined": 4581,
      "Ġhappy": 4582,
      "Ġresilient": 4583,
      "Ġgenetics": 4584,
      "Ġstrengthen": 4585,
      "Ġnurses": 4586,
      "Ġlimit": 4587,
      "Ġsumm": 4588,
      "Ġ2006": 4589,
      "Ġembra": 4590,
      "Ġembry": 4591,
      "Ġaudience": 4592,
      "Ġwalk": 4593,
      "Ġprobably": 4594,
      "ographic": 4595,
      "Ġentirely": 4596,
      "ĠTrans": 4597,
      "Ġanswer": 4598,
      "ĠMedical": 4599,
      "Ġpreferences": 4600,
      "Ġtumor": 4601,
      "ĠCentral": 4602,
      "Ġpredict": 4603,
      "Ġcyt": 4604,
      "Ġwindow": 4605,
      "Ġharmful": 4606,
      "Ġvendors": 4607,
      "Ġinstruments": 4608,
      "gregate": 4609,
      "Ġmascul": 4610,
      "Ġdouble": 4611,
      "steroid": 4612,
      "Ġarchit": 4613,
      "Ġstakehold": 4614,
      "ĠDespite": 4615,
      "Ġsatisfaction": 4616,
      "Ġsilver": 4617,
      "Ġmilit": 4618,
      "ĠOptimization": 4619,
      "Ġrecognize": 4620,
      "Ġorganisms": 4621,
      "199": 4622,
      "Ġsample": 4623,
      "Ġvideo": 4624,
      "Ġmeaning": 4625,
      "Ġremoval": 4626,
      "Ġsubstantial": 4627,
      "Ġestimated": 4628,
      "Ġconcerns": 4629,
      "Ġstraight": 4630,
      "Ġpriorit": 4631,
      "Ġcircum": 4632,
      "Ġinheritance": 4633,
      "ĠSwitch": 4634,
      "Ġemotional": 4635,
      "Ġemphas": 4636,
      "ĠRegular": 4637,
      "Ġscholars": 4638,
      "Ġcrops": 4639,
      "Ġpicture": 4640,
      "Ġconsequences": 4641,
      "ĠFurthermore": 4642,
      "Ġtelephone": 4643,
      "Ġearlier": 4644,
      "Ġsymbol": 4645,
      "ĠIIETA": 4646,
      "Ġabnormal": 4647,
      "riculum": 4648,
      "Ġantibiotics": 4649,
      "Ġperennials": 4650,
      "Ġalleviate": 4651,
      "ĠProfess": 4652,
      "Ġconcerning": 4653,
      "Ġneighborhood": 4654,
      "ĠAustralia": 4655,
      "ĠBorkar": 4656,
      "ĠBitcoin": 4657,
      "ĠDrosophila": 4658,
      "Ġdocument": 4659,
      "ĠMODIFIER": 4660,
      "Ġglaucoma": 4661,
      "Ġvoltmeter": 4662,
      "Ġstakeholders": 4663,
      "'re": 4664,
      ",\"": 4665,
      "36": 4666,
      "50": 4667,
      "500": 4668,
      "78": 4669,
      "Dd": 4670,
      "LANs": 4671,
      "SA": 4672,
      "We": 4673,
      "aur": 4674,
      "bb": 4675,
      "bal": 4676,
      "bills": 4677,
      "bonds": 4678,
      "cular": 4679,
      "des": 4680,
      "dden": 4681,
      "ec": 4682,
      "eed": 4683,
      "fer": 4684,
      "fol": 4685,
      "fill": 4686,
      "fect": 4687,
      "free": 4688,
      "gel": 4689,
      "grow": 4690,
      "hus": 4691,
      "hib": 4692,
      "havi": 4693,
      "hips": 4694,
      "ixt": 4695,
      "iological": 4696,
      "last": 4697,
      "mosp": 4698,
      "po": 4699,
      "ras": 4700,
      "ties": 4701,
      "uel": 4702,
      "vs": 4703,
      "ya": 4704,
      "Ġult": 4705,
      "Ġtur": 4706,
      "Ġtrial": 4707,
      "inate": 4708,
      "inations": 4709,
      "inctions": 4710,
      "inosa": 4711,
      "onom": 4712,
      "Ġsle": 4713,
      "Ġsend": 4714,
      "Ġsick": 4715,
      "erals": 4716,
      "enue": 4717,
      "atically": 4718,
      "Ġox": 4719,
      "ndrome": 4720,
      "itution": 4721,
      "Ġpul": 4722,
      "Ġpurs": 4723,
      "Ġpets": 4724,
      "Ġports": 4725,
      "Ġpenetr": 4726,
      "Ġplease": 4727,
      "ispecial": 4728,
      "ancing": 4729,
      "Ġwire": 4730,
      "Ġwrote": 4731,
      "Ġfrag": 4732,
      "Ġber": 4733,
      "Ġbit": 4734,
      "Ġbind": 4735,
      "Ġbond": 4736,
      "Ġborn": 4737,
      "ichen": 4738,
      "icians": 4739,
      "Ġtown": 4740,
      "Ġmit": 4741,
      "Ġment": 4742,
      "Ġmid": 4743,
      "Ġmild": 4744,
      "Ġmath": 4745,
      "Ġmicro": 4746,
      "Ġdiz": 4747,
      "Ġdry": 4748,
      "Ġdang": 4749,
      "roid": 4750,
      "Ġhon": 4751,
      "Ġhours": 4752,
      "Ġhuge": 4753,
      "Ġhygiene": 4754,
      "ctors": 4755,
      "oming": 4756,
      "Ġrend": 4757,
      "Ġrepe": 4758,
      "Ġthick": 4759,
      "ĠTur": 4760,
      "ĠTri": 4761,
      "loe": 4762,
      "lood": 4763,
      "uset": 4764,
      "Ġglo": 4765,
      "Ġgot": 4766,
      "Ġgives": 4767,
      "Ġisn": 4768,
      "Ġislands": 4769,
      "ira": 4770,
      "eties": 4771,
      "ida": 4772,
      "olition": 4773,
      "othe": 4774,
      "otton": 4775,
      "otland": 4776,
      "Ġles": 4777,
      "Ġline": 4778,
      "Ġlived": 4779,
      "Ġlighter": 4780,
      "Ġstates": 4781,
      "Ġstands": 4782,
      "ĠAA": 4783,
      "igu": 4784,
      "igating": 4785,
      "Ġforward": 4786,
      "vert": 4787,
      "ulb": 4788,
      "ulary": 4789,
      "ĠSaaS": 4790,
      "ĠSource": 4791,
      "ĠSustain": 4792,
      "ĠSym": 4793,
      "Ġaren": 4794,
      "ĠCal": 4795,
      "ĠCreat": 4796,
      "ĠCBS": 4797,
      "iful": 4798,
      "ifuna": 4799,
      "Ġallo": 4800,
      "Ġalign": 4801,
      "Ġalthough": 4802,
      "ago": 4803,
      "agine": 4804,
      "elines": 4805,
      "aminated": 4806,
      "Ġorn": 4807,
      "odes": 4808,
      "Ġcancer": 4809,
      "ĠBuild": 4810,
      "ĠBulb": 4811,
      "ĠMat": 4812,
      "ĠMake": 4813,
      "throp": 4814,
      "unction": 4815,
      "estinal": 4816,
      "esthet": 4817,
      "ĠPur": 4818,
      "ĠPart": 4819,
      "ĠPhys": 4820,
      "ĠPioneer": 4821,
      "antage": 4822,
      "Ġdealing": 4823,
      "Ġsudden": 4824,
      "Ġvast": 4825,
      "Ġvia": 4826,
      "Ġvoc": 4827,
      "Ġvaries": 4828,
      "Ġvulner": 4829,
      "abilities": 4830,
      "abulary": 4831,
      "ĠFol": 4832,
      "ĠFound": 4833,
      "ĠFuture": 4834,
      "ĠFerre": 4835,
      "Ġranging": 4836,
      "ortment": 4837,
      "ĠEagle": 4838,
      "Ġenable": 4839,
      "ĠHy": 4840,
      "ĠHom": 4841,
      "ĠHand": 4842,
      "ĠHost": 4843,
      "ĠHives": 4844,
      "ĠDep": 4845,
      "ĠData": 4846,
      "ĠDaniel": 4847,
      "ĠGrou": 4848,
      "ĠGreat": 4849,
      "ĠGlobal": 4850,
      "ĠGenetic": 4851,
      "ĠGolden": 4852,
      "Ġprecision": 4853,
      "Ġship": 4854,
      "Ġneural": 4855,
      "ournal": 4856,
      "Ġpla": 4857,
      "anda": 4858,
      "ander": 4859,
      "Ġnoted": 4860,
      "fficient": 4861,
      "Ġabolition": 4862,
      "ĠName": 4863,
      "ĠOct": 4864,
      "ormwater": 4865,
      "Ġweak": 4866,
      "Ġwilling": 4867,
      "Ġindepend": 4868,
      "achuset": 4869,
      "Ġsoon": 4870,
      "aryll": 4871,
      "Ġbutt": 4872,
      "Ġtrail": 4873,
      "Ġtraction": 4874,
      "Ġtracking": 4875,
      "Ġkilled": 4876,
      "aved": 4877,
      "place": 4878,
      "ressive": 4879,
      "Ġclar": 4880,
      "Ġfever": 4881,
      "indows": 4882,
      "Ġthemes": 4883,
      "ogle": 4884,
      "Ġarm": 4885,
      "asses": 4886,
      "Ġconsistent": 4887,
      "Ġenthus": 4888,
      "Ġrob": 4889,
      "Ġroom": 4890,
      "Ġtrillion": 4891,
      "hyde": 4892,
      "hydration": 4893,
      "Ġoffice": 4894,
      "Ġoffered": 4895,
      "Ġmeant": 4896,
      "Ġcommun": 4897,
      "Ġsche": 4898,
      "Ġscales": 4899,
      "ĠJac": 4900,
      "ĠJournal": 4901,
      "Ġupd": 4902,
      "Ġoverview": 4903,
      "tenance": 4904,
      "ygotic": 4905,
      "version": 4906,
      "Ġdespite": 4907,
      "Ġtherefore": 4908,
      "Ġsuppress": 4909,
      "Ġrain": 4910,
      "rict": 4911,
      "Ġinteraction": 4912,
      "ĠVis": 4913,
      "ĠVLANs": 4914,
      "Ġhealthier": 4915,
      "Ġgoing": 4916,
      "Ġsomeone": 4917,
      "rence": 4918,
      "ĠChina": 4919,
      "Ġsurround": 4920,
      "Ġprice": 4921,
      "Ġexpand": 4922,
      "Ġexposed": 4923,
      "ozygotic": 4924,
      "Ġbooks": 4925,
      "Ġmostly": 4926,
      "ominal": 4927,
      "iented": 4928,
      "Ġtransaction": 4929,
      "tainment": 4930,
      "Ġenterpr": 4931,
      "Ġentertainment": 4932,
      "ĠRecessive": 4933,
      "Ġattitudes": 4934,
      "Ġapproximately": 4935,
      "Ġminutes": 4936,
      "Ġminoxidil": 4937,
      "Ġcoop": 4938,
      "Ġbehaviour": 4939,
      "Ġincreases": 4940,
      "Ġlargest": 4941,
      "Ġsupports": 4942,
      "Ġfoundations": 4943,
      "ĠEnter": 4944,
      "Ġtreats": 4945,
      "Ġmedia": 4946,
      "Ġstudying": 4947,
      "Ġcarefully": 4948,
      "Ġrefers": 4949,
      "Ġreferred": 4950,
      "Ġdesignated": 4951,
      "Ġ2023": 4952,
      "Ġserve": 4953,
      "ĠNext": 4954,
      "Ġhumanity": 4955,
      "Ġmarkets": 4956,
      "Ġnumerous": 4957,
      "Ġswelling": 4958,
      "ĠBecause": 4959,
      "dehyde": 4960,
      "Ġantioxid": 4961,
      "onder": 4962,
      "Ġindustrial": 4963,
      "Ġcommonly": 4964,
      "Ġ60": 4965,
      "Ġhandle": 4966,
      "Ġadvantage": 4967,
      "Ġideal": 4968,
      "Ġcurls": 4969,
      "Ġlosses": 4970,
      "Ġkings": 4971,
      "Ġcultures": 4972,
      "Ġphysics": 4973,
      "ĠAdd": 4974,
      "ammatory": 4975,
      "Ġdecades": 4976,
      "Ġlegis": 4977,
      "Ġtrend": 4978,
      "Ġsucceed": 4979,
      "2025": 4980,
      "Ġdoesn": 4981,
      "Ġparade": 4982,
      "Ġparades": 4983,
      "Ġdistance": 4984,
      "Ġcarrying": 4985,
      "Ġcarried": 4986,
      "Ġdetails": 4987,
      "Ġengage": 4988,
      "Ġoptimal": 4989,
      "ounter": 4990,
      "Ġelectronic": 4991,
      "Ġspecialist": 4992,
      "ields": 4993,
      "Ġmemor": 4994,
      "Ġmember": 4995,
      "Ġprimarily": 4996,
      "Ġbelief": 4997,
      "Ġcombine": 4998,
      "Ġallergy": 4999,
      "Ġallergen": 5000,
      "Ġthought": 5001,
      "Ġcustomers": 5002,
      "Ġresponses": 5003,
      "Ġlearned": 5004,
      "Ġflower": 5005,
      "Ġinnovations": 5006,
      "Ġdispos": 5007,
      "Ġdispose": 5008,
      "Ġpolicies": 5009,
      "Ġurine": 5010,
      "Ġfacility": 5011,
      "Ġfalls": 5012,
      "Ġlanguages": 5013,
      "Ġvolcan": 5014,
      "ĠWork": 5015,
      "Ġrepresented": 5016,
      "Ġfemin": 5017,
      "Ġharder": 5018,
      "Ġelse": 5019,
      "Ġproport": 5020,
      "Ġanalyze": 5021,
      "Ġwrite": 5022,
      "oyager": 5023,
      "Ġeasy": 5024,
      "Ġexpressed": 5025,
      "ĠAppro": 5026,
      "Ġpreval": 5027,
      "Ġprevious": 5028,
      "Ġprofessionals": 5029,
      "ĠScotland": 5030,
      "Ġnutri": 5031,
      "ĠAgain": 5032,
      "ĠAgricult": 5033,
      "Ġcomputing": 5034,
      "ĠTechniques": 5035,
      "ĠArt": 5036,
      "Ġeventually": 5037,
      "Ġremained": 5038,
      "Ġinstallations": 5039,
      "Ġpiece": 5040,
      "ĠPeriod": 5041,
      "Ġdescribes": 5042,
      "ĠStudio": 5043,
      "Ġauthenticator": 5044,
      "Ġfruit": 5045,
      "Ġfarmers": 5046,
      "Ġbanking": 5047,
      "Ġbeautiful": 5048,
      "Ġpreparing": 5049,
      "Ġimplementing": 5050,
      "ĠKey": 5051,
      "Ġinstitution": 5052,
      "Ġinstrument": 5053,
      "Ġestablishing": 5054,
      "Ġmanufacturers": 5055,
      "loaded": 5056,
      "ĠIPMB": 5057,
      "Ġangle": 5058,
      "Ġindicate": 5059,
      "Ġauthority": 5060,
      "Ġsalt": 5061,
      "Ġmalignant": 5062,
      "ĠCaribs": 5063,
      "ĠCaribbean": 5064,
      "unicip": 5065,
      "ĠPsychological": 5066,
      "ĠStartups": 5067,
      "Ġshowcasing": 5068,
      "Ġbasic": 5069,
      "Ġconvergence": 5070,
      "ĠMultispecial": 5071,
      "ĠMassachuset": 5072,
      "Ġintervention": 5073,
      "Ġinterventions": 5074,
      "ĠJohnson": 5075,
      "ĠPeople": 5076,
      "Ġprepare": 5077,
      "osomal": 5078,
      "Ġguidance": 5079,
      "Ġsituations": 5080,
      "Ġfootball": 5081,
      "Ġzero": 5082,
      "Ġetc": 5083,
      "Ġexactly": 5084,
      "Ġclinical": 5085,
      "Ġoutcrop": 5086,
      "Ġformaldehyde": 5087,
      "Ġ1964": 5088,
      "Ġadvancements": 5089,
      "Ġcorrectly": 5090,
      "ĠAfrican": 5091,
      "PPI": 5092,
      "onymity": 5093,
      "Ġsweet": 5094,
      "Ġinjury": 5095,
      "Ġaverage": 5096,
      "related": 5097,
      "Ġdivided": 5098,
      "ĠExtinction": 5099,
      "ĠLittle": 5100,
      "ĠUrban": 5101,
      "Ġfollicles": 5102,
      "Ġprescribed": 5103,
      "Ġirritation": 5104,
      "Ġautoimmune": 5105,
      "inflammatory": 5106,
      "Ġcrypt": 5107,
      "Ġmotiv": 5108,
      "Ġthrive": 5109,
      "Ġthousands": 5110,
      "Ġexcellent": 5111,
      "ĠFamily": 5112,
      "ĠLancaster": 5113,
      "Ġabdominal": 5114,
      "ĠJanuary": 5115,
      "Ġdrainage": 5116,
      "Ġdoubt": 5117,
      "Ġoccasional": 5118,
      "Ġdedicated": 5119,
      "Ġnorthern": 5120,
      "ĠFactors": 5121,
      "opathology": 5122,
      "Ġcompliance": 5123,
      "Ġcytok": 5124,
      "Ġarchitect": 5125,
      "mosphere": 5126,
      "ĠTriassic": 5127,
      "ĠSustainable": 5128,
      "ĠSymptoms": 5129,
      "ĠCBSE": 5130,
      "ĠFerreira": 5131,
      "Ġenthusi": 5132,
      "ĠMultispeciality": 5133,
      "ĠMassachusetts": 5134,
      "38": 5135,
      "75": 5136,
      "79": 5137,
      "APR": 5138,
      "Bb": 5139,
      "Ch": 5140,
      "COR": 5141,
      "DANCE": 5142,
      "GPT": 5143,
      "ITION": 5144,
      "Ms": 5145,
      "Mart": 5146,
      "OS": 5147,
      "OU": 5148,
      "Offer": 5149,
      "SD": 5150,
      "SW": 5151,
      "avery": 5152,
      "bo": 5153,
      "bell": 5154,
      "back": 5155,
      "cos": 5156,
      "dness": 5157,
      "driven": 5158,
      "equ": 5159,
      "fly": 5160,
      "frame": 5161,
      "gor": 5162,
      "got": 5163,
      "hab": 5164,
      "ior": 5165,
      "iety": 5166,
      "iosity": 5167,
      "ipped": 5168,
      "kin": 5169,
      "lor": 5170,
      "lis": 5171,
      "lig": 5172,
      "long": 5173,
      "law": 5174,
      "ming": 5175,
      "met": 5176,
      "mass": 5177,
      "mark": 5178,
      "medi": 5179,
      "oke": 5180,
      "oved": 5181,
      "pon": 5182,
      "ply": 5183,
      "ris": 5184,
      "ran": 5185,
      "sing": 5186,
      "spe": 5187,
      "ship": 5188,
      "tic": 5189,
      "tco": 5190,
      "uit": 5191,
      "war": 5192,
      "xiety": 5193,
      "¼ļ": 5194,
      "ï¼ļ": 5195,
      "ĠÑ": 5196,
      "Ġrom": 5197,
      "Ġ//": 5198,
      "Ġtight": 5199,
      "Ġtell": 5200,
      "Ġtube": 5201,
      "Ġaid": 5202,
      "Ġaugmented": 5203,
      "Ġasteroid": 5204,
      "inking": 5205,
      "inks": 5206,
      "health": 5207,
      "rest": 5208,
      "reds": 5209,
      "ony": 5210,
      "onqu": 5211,
      "Ġshed": 5212,
      "Ġsouth": 5213,
      "Ġsoph": 5214,
      "Ġsounds": 5215,
      "erb": 5216,
      "ercial": 5217,
      "atal": 5218,
      "atch": 5219,
      "Ġcm": 5220,
      "Ġcart": 5221,
      "Ġcop": 5222,
      "Ġcats": 5223,
      "Ġcrowd": 5224,
      "Ġoce": 5225,
      "essel": 5226,
      "alator": 5227,
      "Ġpun": 5228,
      "ingu": 5229,
      "oral": 5230,
      "orter": 5231,
      "orough": 5232,
      "oriented": 5233,
      "Ġwon": 5234,
      "Ġwent": 5235,
      "Ġwid": 5236,
      "Ġwish": 5237,
      "Ġwings": 5238,
      "Ġfa": 5239,
      "Ġfed": 5240,
      "Ġfel": 5241,
      "Ġfast": 5242,
      "Ġfine": 5243,
      "Ġfirm": 5244,
      "Ġfront": 5245,
      "Ġfuel": 5246,
      "Ġbad": 5247,
      "Ġball": 5248,
      "Ġbib": 5249,
      "Ġandrog": 5250,
      "icing": 5251,
      "icul": 5252,
      "icine": 5253,
      "ician": 5254,
      "ara": 5255,
      "aration": 5256,
      "arwin": 5257,
      "Ġmom": 5258,
      "Ġmagn": 5259,
      "Ġmakers": 5260,
      "Ġmixt": 5261,
      "Ġdom": 5262,
      "Ġdim": 5263,
      "Ġdrop": 5264,
      "Ġdinosa": 5265,
      "roit": 5266,
      "roly": 5267,
      "ented": 5268,
      "entle": 5269,
      "lear": 5270,
      "lements": 5271,
      "Ġhold": 5272,
      "oma": 5273,
      "Ġrecess": 5274,
      "Ġreached": 5275,
      "Ġeating": 5276,
      "Ġegg": 5277,
      "Ġthorough": 5278,
      "ĠTod": 5279,
      "ĠTypes": 5280,
      "los": 5281,
      "loor": 5282,
      "ilience": 5283,
      "used": 5284,
      "lymp": 5285,
      "Ġgro": 5286,
      "Ġgame": 5287,
      "Ġgaps": 5288,
      "Ġgastro": 5289,
      "Ġnerv": 5290,
      "Ġnative": 5291,
      "Ġnerve": 5292,
      "Ġnarr": 5293,
      "Ġnorth": 5294,
      "imizing": 5295,
      "irus": 5296,
      "charge": 5297,
      "stic": 5298,
      "struct": 5299,
      "stract": 5300,
      "idge": 5301,
      "olt": 5302,
      "urt": 5303,
      "otal": 5304,
      "Ġlush": 5305,
      "Ġleng": 5306,
      "ragan": 5307,
      "Ġstruct": 5308,
      "Ġstick": 5309,
      "Ġstyle": 5310,
      "ĠAB": 5311,
      "ĠAv": 5312,
      "ĠAnt": 5313,
      "igen": 5314,
      "Ġyog": 5315,
      "see": 5316,
      "Ġprojects": 5317,
      "uling": 5318,
      "ĠSm": 5319,
      "ĠSol": 5320,
      "ĠSide": 5321,
      "Ġconv": 5322,
      "ĠCT": 5323,
      "ĠCut": 5324,
      "ĠCour": 5325,
      "ĠCult": 5326,
      "ĠCase": 5327,
      "ĠCens": 5328,
      "ĠCDD": 5329,
      "ĠCPPI": 5330,
      "ithms": 5331,
      "Ġask": 5332,
      "ifies": 5333,
      "ifically": 5334,
      "ifted": 5335,
      "Ġalgor": 5336,
      "owered": 5337,
      "amps": 5338,
      "ode": 5339,
      "Ġwhose": 5340,
      "ĠBo": 5341,
      "ĠBr": 5342,
      "ĠBrown": 5343,
      "ĠBonds": 5344,
      "ĠMor": 5345,
      "ĠMar": 5346,
      "ĠMex": 5347,
      "ĠMaintain": 5348,
      "ths": 5349,
      "Ġcomments": 5350,
      "Ġexac": 5351,
      "Ġexcept": 5352,
      "Ġextens": 5353,
      "Ġexternal": 5354,
      "Ġexec": 5355,
      "estock": 5356,
      "ĠPress": 5357,
      "ĠPub": 5358,
      "ĠPoor": 5359,
      "ĠPerson": 5360,
      "Ġsections": 5361,
      "Ġsearch": 5362,
      "Ġseven": 5363,
      "Ġsegregate": 5364,
      "Ġhem": 5365,
      "Ġheat": 5366,
      "Ġheight": 5367,
      "ady": 5368,
      "cious": 5369,
      "Ġdeal": 5370,
      "Ġvict": 5371,
      "Ġvacc": 5372,
      "Ġvessel": 5373,
      "Ġchap": 5374,
      "Ġchances": 5375,
      "ĠFL": 5376,
      "ĠFind": 5377,
      "ĠFolic": 5378,
      "ĠFountain": 5379,
      "ivestock": 5380,
      "ores": 5381,
      "illa": 5382,
      "pper": 5383,
      "ĠWal": 5384,
      "ĠWest": 5385,
      "ĠWolf": 5386,
      "ĠWestern": 5387,
      "orting": 5388,
      "acing": 5389,
      "acies": 5390,
      "acher": 5391,
      "ĠEach": 5392,
      "Ġenz": 5393,
      "ĠHis": 5394,
      "ĠHome": 5395,
      "ĠHep": 5396,
      "udal": 5397,
      "Ġusual": 5398,
      "ĠDiff": 5399,
      "ĠDown": 5400,
      "ĠDOMINANCE": 5401,
      "Ġyourself": 5402,
      "Ġlose": 5403,
      "Ġleaf": 5404,
      "Ġatmosphere": 5405,
      "Ġshop": 5406,
      "ops": 5407,
      "aren": 5408,
      "ĠRiver": 5409,
      "ĠRedu": 5410,
      "ĠRanch": 5411,
      "riers": 5412,
      "ĠLat": 5413,
      "ĠList": 5414,
      "ĠLab": 5415,
      "ĠLong": 5416,
      "Ġcompose": 5417,
      "Ġcompute": 5418,
      "ostic": 5419,
      "ĠNatural": 5420,
      "ĠNiet": 5421,
      "Ġcontaminated": 5422,
      "ĠOpen": 5423,
      "Ġmanual": 5424,
      "Ġacute": 5425,
      "Ġcavity": 5426,
      "Ġinvent": 5427,
      "Ġinvention": 5428,
      "Ġinvasive": 5429,
      "Ġimposs": 5430,
      "Ġdisru": 5431,
      "Ġindication": 5432,
      "Ġindependent": 5433,
      "Ġknew": 5434,
      "Ġspeaking": 5435,
      "Ġclim": 5436,
      "Ġclaim": 5437,
      "Ġspots": 5438,
      "ENT": 5439,
      "Ġsyndrome": 5440,
      "Ġfeudal": 5441,
      "âĢĿ,": 5442,
      "ogaster": 5443,
      "cons": 5444,
      "cont": 5445,
      "Ġarise": 5446,
      "Ġarche": 5447,
      "Ġstarting": 5448,
      "Ġconsist": 5449,
      "cluded": 5450,
      "Ġtrust": 5451,
      "Ġcolour": 5452,
      "hyd": 5453,
      "Ġdied": 5454,
      "ĠYes": 5455,
      "Ġcommercial": 5456,
      "ĠJe": 5457,
      "ĠJul": 5458,
      "Ġdiffer": 5459,
      "Ġqual": 5460,
      "Ġbloom": 5461,
      "Ġgrown": 5462,
      "Ġtechnical": 5463,
      "arian": 5464,
      "Ġemail": 5465,
      "Ġsupplement": 5466,
      "Ġinterf": 5467,
      "Ġinterpre": 5468,
      "Ġinteractions": 5469,
      "Ġtwice": 5470,
      "herent": 5471,
      "ensive": 5472,
      "ensions": 5473,
      "Ġanything": 5474,
      "ructive": 5475,
      "Ġpea": 5476,
      "ĠChar": 5477,
      "ĠChines": 5478,
      "ĠChallen": 5479,
      "Ġsurpr": 5480,
      "Ġsurvey": 5481,
      "Ġprint": 5482,
      "curities": 5483,
      "Ġrelatively": 5484,
      "Ġtransl": 5485,
      "Ġtransfer": 5486,
      "Ġlocus": 5487,
      "Ġregions": 5488,
      "Ġregional": 5489,
      "Ġremains": 5490,
      "Ġremoved": 5491,
      "Ġacts": 5492,
      "tained": 5493,
      "ronze": 5494,
      "Ġpolar": 5495,
      "Ġsmooth": 5496,
      "ĠReality": 5497,
      "Ġattem": 5498,
      "Ġattend": 5499,
      "Ġmoderate": 5500,
      "Ġprocessing": 5501,
      "ĠComb": 5502,
      "Ġskill": 5503,
      "Ġminerals": 5504,
      "Ġpresents": 5505,
      "Ġcovered": 5506,
      "intestinal": 5507,
      "Ġinvolving": 5508,
      "century": 5509,
      "resident": 5510,
      "Ġsupporting": 5511,
      "Ġsimply": 5512,
      "Ġgenerations": 5513,
      "Ġdetect": 5514,
      "Ġpopulations": 5515,
      "Ġdevelopmental": 5516,
      "Ġinflation": 5517,
      "Ġpossibility": 5518,
      "ermis": 5519,
      "Ġendemic": 5520,
      "Ġ2024": 5521,
      "Ġinformed": 5522,
      "Ġrevenue": 5523,
      "ĠAnimals": 5524,
      "Ġtesting": 5525,
      "Ġmainly": 5526,
      "Ġdefine": 5527,
      "Ġoperating": 5528,
      "Ġbuy": 5529,
      "ĠBehavi": 5530,
      "Ġorganization": 5531,
      "Ġorganizations": 5532,
      "Ġcontributes": 5533,
      "Ġseek": 5534,
      "Ġadvice": 5535,
      "Ġcrossing": 5536,
      "Ġinsur": 5537,
      "Ġassets": 5538,
      "Ġgrand": 5539,
      "ĠPlants": 5540,
      "ĠPlatform": 5541,
      "Ġcultiv": 5542,
      "Ġfamous": 5543,
      "Ġfocuses": 5544,
      "ĠAdv": 5545,
      "Ġimproved": 5546,
      "Ġgreatly": 5547,
      "Ġlegally": 5548,
      "Ġclothing": 5549,
      "Ġflies": 5550,
      "ocks": 5551,
      "Ġ75": 5552,
      "ĠAndor": 5553,
      "Ġconfig": 5554,
      "Ġconflict": 5555,
      "Ġveter": 5556,
      "Ġfindings": 5557,
      "Ġviruses": 5558,
      "Ġconsumption": 5559,
      "Ġbreaking": 5560,
      "Ġmaj": 5561,
      "Ġ2011": 5562,
      "Ġcontaining": 5563,
      "spot": 5564,
      "chief": 5565,
      "Ġvisit": 5566,
      "Ġlooked": 5567,
      "Ġpercentage": 5568,
      "Ġdiagnostic": 5569,
      "Ġpurchase": 5570,
      "ĠIndust": 5571,
      "isticated": 5572,
      "Ġrestric": 5573,
      "porary": 5574,
      "Ġcharacteristic": 5575,
      "ugues": 5576,
      "inciples": 5577,
      "Ġdrive": 5578,
      "Ġreaders": 5579,
      "Ġcombat": 5580,
      "Ġexplains": 5581,
      "Ġallergies": 5582,
      "Ġinfluenced": 5583,
      "Ġterrit": 5584,
      "Ġphase": 5585,
      "Ġphone": 5586,
      "Ġpharm": 5587,
      "Ġproperty": 5588,
      "ĠSpain": 5589,
      "ĠResilience": 5590,
      "Ġprofessor": 5591,
      "Ġdiscusses": 5592,
      "Ġpassed": 5593,
      "thoughtco": 5594,
      "Ġsatell": 5595,
      "Ġhyd": 5596,
      "Ġdispens": 5597,
      "Ġsafely": 5598,
      "Ġassessment": 5599,
      "Ġurban": 5600,
      "Ġfacing": 5601,
      "Ġmelasma": 5602,
      "Ġrunning": 5603,
      "Ġintegrated": 5604,
      "Ġrepresentative": 5605,
      "pistatic": 5606,
      "Ġtherapist": 5607,
      "Ġprophe": 5608,
      "Ġsuffer": 5609,
      "Ġsufficient": 5610,
      "fortunately": 5611,
      "Ġwritten": 5612,
      "Ġmovements": 5613,
      "Ġeasily": 5614,
      "Ġfrequent": 5615,
      "Ġturned": 5616,
      "ĠEarly": 5617,
      "ĠOnly": 5618,
      "Ġcounter": 5619,
      "ĠNews": 5620,
      "Ġfigures": 5621,
      "ottish": 5622,
      "Ġlayers": 5623,
      "ĠApple": 5624,
      "ĠChem": 5625,
      "Ġaccepted": 5626,
      "Ġdisasters": 5627,
      "Ġrevolutionary": 5628,
      "Ġprotecting": 5629,
      "Ġmelanocy": 5630,
      "Ġmelanogaster": 5631,
      "iatur": 5632,
      "ĠQu": 5633,
      "Ġmoved": 5634,
      "Ġlimited": 5635,
      "Ġstores": 5636,
      "Ġclosely": 5637,
      "Ġachievement": 5638,
      "aneously": 5639,
      "Ġbegin": 5640,
      "Ġconducted": 5641,
      "ĠMoreno": 5642,
      "Ġcurrently": 5643,
      "Ġliterary": 5644,
      "words": 5645,
      "Ġbacterial": 5646,
      "ĠCenter": 5647,
      "Ġnearly": 5648,
      "Ġcompetition": 5649,
      "Ġcaptured": 5650,
      "Ġkinds": 5651,
      "nett": 5652,
      "Ġxylitol": 5653,
      "ĠSouthw": 5654,
      "ibrary": 5655,
      "ĠEXAMPLES": 5656,
      "what": 5657,
      "Ġsunlight": 5658,
      "Ġmasks": 5659,
      "Ġgained": 5660,
      "Ġarchae": 5661,
      "Ġcollaboration": 5662,
      "holds": 5663,
      "namic": 5664,
      "Ġsongs": 5665,
      "Ġobserved": 5666,
      "Ġburles": 5667,
      "Ġmutant": 5668,
      "Ġhostas": 5669,
      "Ġreveals": 5670,
      "Ġnegative": 5671,
      "Ġfamiliar": 5672,
      "cript": 5673,
      "going": 5674,
      "Ġtoxic": 5675,
      "Ġhope": 5676,
      "Ġrelationship": 5677,
      "Ġrelationships": 5678,
      "Ġvehicle": 5679,
      "Ġhypertension": 5680,
      "Ġbreathing": 5681,
      "Ġannually": 5682,
      "Ġvideos": 5683,
      "Ġaccuracy": 5684,
      "ĠWhole": 5685,
      "Ġemerging": 5686,
      "Ġownership": 5687,
      "Ġmonitoring": 5688,
      "........": 5689,
      "âĢ¦âĢ¦âĢ¦âĢ¦": 5690,
      "ĠStephen": 5691,
      "naire": 5692,
      "Ġpackage": 5693,
      "ĠAsso": 5694,
      "ĠGrand": 5695,
      "Ġprepared": 5696,
      "osomes": 5697,
      "ĠOften": 5698,
      "ĠOrig": 5699,
      "Ġacceler": 5700,
      "ĠUsing": 5701,
      "Ġfluid": 5702,
      "Ġutilize": 5703,
      "casts": 5704,
      "ĠImpact": 5705,
      "Ġsettings": 5706,
      "Ġrespirator": 5707,
      "Ġillnesses": 5708,
      "puts": 5709,
      "Ġfiber": 5710,
      "Ġincorpor": 5711,
      "ĠSimilar": 5712,
      "Ġconnection": 5713,
      "ĠBarragan": 5714,
      "Ġsecret": 5715,
      "ĠGeneva": 5716,
      "ĠInteraction": 5717,
      "Ġcolonies": 5718,
      "Ġcommitment": 5719,
      "Ġquantities": 5720,
      "Ġobjectives": 5721,
      "ĠBabylonian": 5722,
      "Ġbowl": 5723,
      "Ġbaby": 5724,
      "Ġboundaries": 5725,
      "Ġstimulate": 5726,
      "Ġdecrease": 5727,
      "Ġsugar": 5728,
      "Ġvitamins": 5729,
      "ĠDetroit": 5730,
      "Ġadults": 5731,
      "Ġdiversity": 5732,
      "ĠChoose": 5733,
      "Ġcreams": 5734,
      "Ġsnack": 5735,
      "Ġsodium": 5736,
      "Ġframework": 5737,
      "Ġlung": 5738,
      "ĠIdentify": 5739,
      "oscopy": 5740,
      "Ġevaluation": 5741,
      "ĠSpanish": 5742,
      "ĠPreparing": 5743,
      "Ġcelebrated": 5744,
      "economic": 5745,
      "Ġpickup": 5746,
      "Ġbottom": 5747,
      "ĠSherigu": 5748,
      "ĠMajor": 5749,
      "Ġtrigger": 5750,
      "ĠVirtual": 5751,
      "Ġbuilt": 5752,
      "Ġbrothers": 5753,
      "Ġwalkalator": 5754,
      "ĠProfessor": 5755,
      "folio": 5756,
      "Ġbinding": 5757,
      "Ġrepeated": 5758,
      "otherapy": 5759,
      "ĠBuilding": 5760,
      "Ġvocabulary": 5761,
      "ĠFollow": 5762,
      "ĠGroup": 5763,
      "Ġplaques": 5764,
      "Ġindependently": 5765,
      "aryllis": 5766,
      "ĠEnteritis": 5767,
      "Ġantioxidants": 5768,
      "Ġvolcanic": 5769,
      "APRA": 5770,
      "CORDANCE": 5771,
      "Offerings": 5772,
      "cosystem": 5773,
      "Ġsophisticated": 5774,
      "Ġfederal": 5775,
      "Ġandrogenetic": 5776,
      "Ġmixture": 5777,
      "ĠToday": 5778,
      "Ġgastrointestinal": 5779,
      "ĠCensus": 5780,
      "Ġalgorithms": 5781,
      "Ġexacerb": 5782,
      "Ġchapters": 5783,
      "ĠHepat": 5784,
      "ĠChinese": 5785,
      "03": 5786,
      "13": 5787,
      "34": 5788,
      "40": 5789,
      "53": 5790,
      "54": 5791,
      "69": 5792,
      "91": 5793,
      "AT": 5794,
      "Bur": 5795,
      "CA": 5796,
      "EF": 5797,
      "HS": 5798,
      "In": 5799,
      "LA": 5800,
      "LSW": 5801,
      "MENT": 5802,
      "PM": 5803,
      "VE": 5804,
      "Wor": 5805,
      "app": 5806,
      "aper": 5807,
      "bat": 5808,
      "bing": 5809,
      "bro": 5810,
      "bled": 5811,
      "cure": 5812,
      "cate": 5813,
      "call": 5814,
      "cry": 5815,
      "craft": 5816,
      "cDd": 5817,
      "dy": 5818,
      "dep": 5819,
      "diff": 5820,
      "ef": 5821,
      "eps": 5822,
      "effective": 5823,
      "fig": 5824,
      "from": 5825,
      "fall": 5826,
      "flow": 5827,
      "fits": 5828,
      "gment": 5829,
      "gers": 5830,
      "han": 5831,
      "ii": 5832,
      "ius": 5833,
      "iated": 5834,
      "ipping": 5835,
      "jam": 5836,
      "kt": 5837,
      "ky": 5838,
      "lant": 5839,
      "men": 5840,
      "mber": 5841,
      "nes": 5842,
      "oin": 5843,
      "ole": 5844,
      "pet": 5845,
      "port": 5846,
      "part": 5847,
      "ror": 5848,
      "sol": 5849,
      "source": 5850,
      "science": 5851,
      "tical": 5852,
      "tect": 5853,
      "ux": 5854,
      "uing": 5855,
      "val": 5856,
      "vare": 5857,
      "you": 5858,
      "zed": 5859,
      "zene": 5860,
      "Ã¼": 5861,
      "Î²": 5862,
      "Ġly": 5863,
      "Ġign": 5864,
      "Ġice": 5865,
      "Ġupp": 5866,
      "Ġtour": 5867,
      "Ġtrou": 5868,
      "Ġtail": 5869,
      "Ġtape": 5870,
      "Ġtrying": 5871,
      "Ġath": 5872,
      "iny": 5873,
      "incent": 5874,
      "inition": 5875,
      "hel": 5876,
      "reteral": 5877,
      "only": 5878,
      "Ġsand": 5879,
      "Ġsound": 5880,
      "Ġsales": 5881,
      "enger": 5882,
      "encing": 5883,
      "att": 5884,
      "atGPT": 5885,
      "Ġcit": 5886,
      "Ġcraft": 5887,
      "Ġopin": 5888,
      "ese": 5889,
      "esides": 5890,
      "alm": 5891,
      "alian": 5892,
      "itate": 5893,
      "itness": 5894,
      "itting": 5895,
      "Ġpiv": 5896,
      "Ġpenetrance": 5897,
      "iser": 5898,
      "isms": 5899,
      "isters": 5900,
      "Ġwa": 5901,
      "Ġwr": 5902,
      "Ġware": 5903,
      "Ġwelf": 5904,
      "Ġfro": 5905,
      "Ġfur": 5906,
      "Ġfill": 5907,
      "Ġfire": 5908,
      "Ġfile": 5909,
      "Ġfles": 5910,
      "Ġfiles": 5911,
      "Ġbif": 5912,
      "Ġbank": 5913,
      "Ġbrows": 5914,
      "Ġinherent": 5915,
      "icate": 5916,
      "ouples": 5917,
      "ioned": 5918,
      "aria": 5919,
      "Ġmg": 5920,
      "Ġmer": 5921,
      "Ġmis": 5922,
      "Ġmere": 5923,
      "Ġmine": 5924,
      "Ġmother": 5925,
      "Ġmuc": 5926,
      "Ġmamm": 5927,
      "Ġmask": 5928,
      "Ġmountain": 5929,
      "Ġder": 5930,
      "Ġdance": 5931,
      "Ġdual": 5932,
      "Ġditch": 5933,
      "ropping": 5934,
      "level": 5935,
      "Ġhor": 5936,
      "Ġhour": 5937,
      "Ġhyp": 5938,
      "asm": 5939,
      "omes": 5940,
      "Ġrent": 5941,
      "Ġrept": 5942,
      "Ġreject": 5943,
      "Ġreward": 5944,
      "Ġrebell": 5945,
      "Ġep": 5946,
      "Ġease": 5947,
      "Ġeco": 5948,
      "Ġepistasis": 5949,
      "Ġecosystem": 5950,
      "ĠTH": 5951,
      "ĠTul": 5952,
      "ĠTem": 5953,
      "ĠTum": 5954,
      "ĠTER": 5955,
      "lored": 5956,
      "losure": 5957,
      "iled": 5958,
      "ilation": 5959,
      "usion": 5960,
      "Ġbeig": 5961,
      "Ġgri": 5962,
      "Ġgather": 5963,
      "Ġglob": 5964,
      "Ġisol": 5965,
      "Ġnation": 5966,
      "Ġnight": 5967,
      "Ġnice": 5968,
      "imov": 5969,
      "cholar": 5970,
      "etal": 5971,
      "etite": 5972,
      "stab": 5973,
      "ided": 5974,
      "idity": 5975,
      "oles": 5976,
      "otyp": 5977,
      "otypic": 5978,
      "Ġlies": 5979,
      "Ġlens": 5980,
      "Ġlabor": 5981,
      "Ġlivestock": 5982,
      "rain": 5983,
      "Ġstro": 5984,
      "Ġstem": 5985,
      "Ġstable": 5986,
      "Ġstead": 5987,
      "Ġstrip": 5988,
      "Ġstormwater": 5989,
      "ĠAugmented": 5990,
      "ĠAloe": 5991,
      "igation": 5992,
      "Ġforgot": 5993,
      "Ġonion": 5994,
      "mentary": 5995,
      "ulated": 5996,
      "ĠSuc": 5997,
      "ĠSquare": 5998,
      "ĠSifuna": 5999,
      "Ġconvers": 6000,
      "ĠCam": 6001,
      "ĠCrown": 6002,
      "ĠCustom": 6003,
      "ĠCopy": 6004,
      "ĠCeli": 6005,
      "ĠCattle": 6006,
      "ĠCLSW": 6007,
      "Ġalt": 6008,
      "Ġalike": 6009,
      "Ġalone": 6010,
      "Ġalco": 6011,
      "Ġanonymity": 6012,
      "ags": 6013,
      "ureau": 6014,
      "elong": 6015,
      "elcome": 6016,
      "amil": 6017,
      "Ġoral": 6018,
      "Ġwhom": 6019,
      "Ġwhilst": 6020,
      "Ġhab": 6021,
      "Ġhaven": 6022,
      "ĠBer": 6023,
      "ĠBost": 6024,
      "ĠBene": 6025,
      "ĠBills": 6026,
      "ĠBiological": 6027,
      "ĠBureau": 6028,
      "ĠMo": 6029,
      "ĠMus": 6030,
      "ĠMag": 6031,
      "ĠMother": 6032,
      "thm": 6033,
      "unnett": 6034,
      "Ġexcel": 6035,
      "Ġexhib": 6036,
      "ests": 6037,
      "ested": 6038,
      "ĠPet": 6039,
      "ĠPay": 6040,
      "ĠPain": 6041,
      "ĠPort": 6042,
      "ĠPhen": 6043,
      "ĠPract": 6044,
      "ĠPublic": 6045,
      "ĠParent": 6046,
      "ĠPlease": 6047,
      "ĠPunnett": 6048,
      "Ġsequ": 6049,
      "Ġselection": 6050,
      "Ġseasons": 6051,
      "Ġsectors": 6052,
      "Ġsecurities": 6053,
      "adly": 6054,
      "istical": 6055,
      "istry": 6056,
      "abling": 6057,
      "Ġchose": 6058,
      "Ġchann": 6059,
      "ĠFest": 6060,
      "ĠFort": 6061,
      "ĠFlow": 6062,
      "ĠFree": 6063,
      "Ġrhy": 6064,
      "Ġrivers": 6065,
      "Ġrounds": 6066,
      "ĠEnd": 6067,
      "ĠEqu": 6068,
      "ĠEast": 6069,
      "ĠEstab": 6070,
      "Ġenables": 6071,
      "Ġencomp": 6072,
      "Ġenabling": 6073,
      "ĠHer": 6074,
      "ĠHeli": 6075,
      "Ġusage": 6076,
      "ĠDire": 6077,
      "ĠDog": 6078,
      "ĠDIS": 6079,
      "ĠDrag": 6080,
      "ĠDuplicate": 6081,
      "ĠDarwin": 6082,
      "ĠDEF": 6083,
      "umps": 6084,
      "Ġload": 6085,
      "Ġlooks": 6086,
      "ĠGreg": 6087,
      "Ġ100": 6088,
      "Ġ22": 6089,
      "Ġ28": 6090,
      "Ġprey": 6091,
      "Ġpreced": 6092,
      "Ġprecise": 6093,
      "Ġsho": 6094,
      "Ġshades": 6095,
      "Ġshorter": 6096,
      "dule": 6097,
      "ares": 6098,
      "ĠRout": 6099,
      "Ġplain": 6100,
      "Ġplaced": 6101,
      "Ġplenty": 6102,
      "ĠLand": 6103,
      "ĠLear": 6104,
      "ĠLond": 6105,
      "osz": 6106,
      "Ġcomposition": 6107,
      "endered": 6108,
      "Ġnothing": 6109,
      "ffic": 6110,
      "ultaneously": 6111,
      "Ġreserved": 6112,
      "oster": 6113,
      "ĠNature": 6114,
      "ĠNurs": 6115,
      "Ġcontro": 6116,
      "ĠThus": 6117,
      "ĠThrough": 6118,
      "Ġadds": 6119,
      "Ġadequ": 6120,
      "ĠOut": 6121,
      "ĠOff": 6122,
      "ĠObs": 6123,
      "ĠOlymp": 6124,
      "asts": 6125,
      "Ġmanned": 6126,
      "Ġaccom": 6127,
      "Ġimpressive": 6128,
      "lication": 6129,
      "Ġdiss": 6130,
      "Ġdose": 6131,
      "Ġunit": 6132,
      "Ġappre": 6133,
      "ĠItalian": 6134,
      "Ġtrain": 6135,
      "Ġtract": 6136,
      "Ġtraffic": 6137,
      "Ġrecre": 6138,
      "ĠUreteral": 6139,
      "rys": 6140,
      "Ġperman": 6141,
      "Ġperhaps": 6142,
      "Ġperfect": 6143,
      "Ġproduces": 6144,
      "bert": 6145,
      "ogen": 6146,
      "oglob": 6147,
      "Ġoutd": 6148,
      "Ġoutside": 6149,
      "contin": 6150,
      "acked": 6151,
      "Ġarray": 6152,
      "ubb": 6153,
      "Ġconserve": 6154,
      "Ġroles": 6155,
      "Ġcolle": 6156,
      "Ġcolors": 6157,
      "Ġfundamental": 6158,
      "Ġpartners": 6159,
      "Ġovercome": 6160,
      "ishing": 6161,
      "ailing": 6162,
      "ygen": 6163,
      "ĠState": 6164,
      "fulness": 6165,
      "Ġworked": 6166,
      "Ġworkforce": 6167,
      "arians": 6168,
      "Ġeman": 6169,
      "ĠKAPRA": 6170,
      "Ġrams": 6171,
      "ĠVR": 6172,
      "ĠVe": 6173,
      "ĠVent": 6174,
      "ĠVacc": 6175,
      "ĠVincent": 6176,
      "ensity": 6177,
      "Ġpatches": 6178,
      "Ġsold": 6179,
      "Ġsolid": 6180,
      "ĠChild": 6181,
      "ĠChatGPT": 6182,
      "Ġsurgical": 6183,
      "Ġrelative": 6184,
      "Ġboy": 6185,
      "ominance": 6186,
      "Ġ33": 6187,
      "Ġ34": 6188,
      "blem": 6189,
      "ĠAlong": 6190,
      "ĠAlvare": 6191,
      "Ġnews": 6192,
      "Ġremote": 6193,
      "Ġactive": 6194,
      "Ġautonom": 6195,
      "Ġautosomal": 6196,
      "apers": 6197,
      "Ġplanting": 6198,
      "Ġpollin": 6199,
      "Ġmeticul": 6200,
      "Ġsmart": 6201,
      "Ġcapable": 6202,
      "Ġkept": 6203,
      "Ġattraction": 6204,
      "Ġhomes": 6205,
      "Ġprocession": 6206,
      "Ġvarieties": 6207,
      "ĠCompar": 6208,
      "Ġsubmit": 6209,
      "airs": 6210,
      "Ġskilled": 6211,
      "Ġcoord": 6212,
      "Ġcooking": 6213,
      "Ġextract": 6214,
      "ausea": 6215,
      "Ġplanet": 6216,
      "Ġrisky": 6217,
      "pects": 6218,
      "pective": 6219,
      "Ġleader": 6220,
      "Ġsimultaneously": 6221,
      "Ġpersistent": 6222,
      "Ġfoundation": 6223,
      "ĠAsimov": 6224,
      "Ġfactor": 6225,
      "ĠEnergy": 6226,
      "ĠEnsure": 6227,
      "cope": 6228,
      "Ġproductivity": 6229,
      "Ġidentical": 6230,
      "Ġmarkers": 6231,
      "ovember": 6232,
      "Ġowner": 6233,
      "Ġreference": 6234,
      "ĠProv": 6235,
      "ĠExper": 6236,
      "ĠExpl": 6237,
      "Ġended": 6238,
      "Ġessay": 6239,
      "ĠConditions": 6240,
      "ĠAngel": 6241,
      "Ġallowed": 6242,
      "Ġsafer": 6243,
      "iences": 6244,
      "Ġpainful": 6245,
      "Ġequipped": 6246,
      "ĠNeural": 6247,
      "Ġmaintenance": 6248,
      "Ġaffecting": 6249,
      "Ġdefects": 6250,
      "LISM": 6251,
      "Ġbirds": 6252,
      "Ġmonozygotic": 6253,
      "ĠBeast": 6254,
      "aths": 6255,
      "Ġorganism": 6256,
      "Ġbeneath": 6257,
      "Ġeverything": 6258,
      "Ġpromising": 6259,
      "Ġcapitalists": 6260,
      "Ġestate": 6261,
      "Ġconsidering": 6262,
      "Ġcurly": 6263,
      "Ġcurved": 6264,
      "iveness": 6265,
      "Ġpractition": 6266,
      "Ġgraph": 6267,
      "Ġpowered": 6268,
      "Ġfocused": 6269,
      "Ġeconomies": 6270,
      "Ġlargely": 6271,
      "Ġelectric": 6272,
      "Ġelectroly": 6273,
      "Ġimproves": 6274,
      "Ġkeywords": 6275,
      "they": 6276,
      "Ġimmun": 6277,
      "Ġflavor": 6278,
      "ĠSoftware": 6279,
      "2018": 6280,
      "INITION": 6281,
      "Ġpublication": 6282,
      "Ġchallenging": 6283,
      "Ġperformed": 6284,
      "Ġconsuming": 6285,
      "Ġconsumed": 6286,
      "Ġconsumers": 6287,
      "Ġblend": 6288,
      "Ġmah": 6289,
      "Ġcarry": 6290,
      "Ġoppos": 6291,
      "ĠTeleg": 6292,
      "Ġgoods": 6293,
      "Ġheterozygotes": 6294,
      "Ġdetailing": 6295,
      "Ġcreativity": 6296,
      "Ġdiagnosing": 6297,
      "Ġcorner": 6298,
      "Ġoptimization": 6299,
      "Ġpurple": 6300,
      "Ġportfolio": 6301,
      "ĠIndependent": 6302,
      "Ġcontrols": 6303,
      "Ġoccurred": 6304,
      "Ġ80": 6305,
      "Ġhimself": 6306,
      "Ġrestoring": 6307,
      "Ġrestoration": 6308,
      "annica": 6309,
      "Ġgetting": 6310,
      "Ġeducational": 6311,
      "mendels": 6312,
      "Ġnonc": 6313,
      "anguage": 6314,
      "Ġrepresents": 6315,
      "Ġpayments": 6316,
      "Ġmathemat": 6317,
      "Ġmusical": 6318,
      "ameters": 6319,
      "Ġexplan": 6320,
      "Ġallergens": 6321,
      "Ġinfluencing": 6322,
      "Ġmenu": 6323,
      "Ġstandard": 6324,
      "ĠMonohybrid": 6325,
      "ĠWithout": 6326,
      "Ġdiseases": 6327,
      "Ġhydration": 6328,
      "Ġrecorded": 6329,
      "Ġjoined": 6330,
      "Ġavoiding": 6331,
      "Ġassesses": 6332,
      "print": 6333,
      "principles": 6334,
      "Ġurged": 6335,
      "Ġbalanced": 6336,
      "Ġbaldness": 6337,
      "loyment": 6338,
      "Ġgrasp": 6339,
      "idden": 6340,
      "Ġvolume": 6341,
      "ĠDisaster": 6342,
      "Ġpropag": 6343,
      "Ġconcise": 6344,
      "Ġorigins": 6345,
      "1223": 6346,
      "azon": 6347,
      "Ġclicking": 6348,
      "Ġsecuring": 6349,
      "Ġstructured": 6350,
      "ĠInstall": 6351,
      "Ġfrequency": 6352,
      "Ġdestructive": 6353,
      "aska": 6354,
      "Ġexpectations": 6355,
      "Ġdifficulties": 6356,
      "Ġmajority": 6357,
      "ĠALLELISM": 6358,
      "ĠImages": 6359,
      "Ġhazards": 6360,
      "Ġtransformation": 6361,
      "Ġexperienced": 6362,
      "Ġlaws": 6363,
      "Ġlawy": 6364,
      "Ġhappens": 6365,
      "Ġhappened": 6366,
      "Ġmanufacturing": 6367,
      "Ġrecommendations": 6368,
      "Ġexplores": 6369,
      "Ġexplored": 6370,
      "ĠCompany": 6371,
      "forward": 6372,
      "Ġtissues": 6373,
      "ĠScottish": 6374,
      "Ġenhances": 6375,
      "Ġabscess": 6376,
      "extinction": 6377,
      "Ġaudiences": 6378,
      "Ġargue": 6379,
      "bridge": 6380,
      "Ġbroader": 6381,
      "ĠMedications": 6382,
      "cipation": 6383,
      "ĠGoogle": 6384,
      "Ġprefer": 6385,
      "Ġspreading": 6386,
      "ĠMontreal": 6387,
      "Ġdeaths": 6388,
      "ĠEconomics": 6389,
      "Ġshapes": 6390,
      "Ġcompetitions": 6391,
      "Ġcaptiv": 6392,
      "Ġdescribed": 6393,
      "ĠStudies": 6394,
      "Ġviolence": 6395,
      "Ġfarmland": 6396,
      "ĠPoverty": 6397,
      "Ġrules": 6398,
      "Ġintroduce": 6399,
      "Ġclasses": 6400,
      "which": 6401,
      "ertific": 6402,
      "Ġmarks": 6403,
      "Ġyounger": 6404,
      "Ġimmediate": 6405,
      "holi": 6406,
      "namics": 6407,
      "ĠTwo": 6408,
      "Ġledger": 6409,
      "Ġselecting": 6410,
      "Ġnegatively": 6411,
      "Ġdiscover": 6412,
      "Ġdiscovery": 6413,
      "Ġdiscovered": 6414,
      "Ġquestionnaire": 6415,
      "Ġsatisfied": 6416,
      "Ġhooked": 6417,
      "ĠMinister": 6418,
      "rippe": 6419,
      "Ġshowcase": 6420,
      "Ġeditorial": 6421,
      "Ġnetworking": 6422,
      "Ġdemonstrate": 6423,
      "Ġannual": 6424,
      "ĠMulti": 6425,
      "ĠRisks": 6426,
      "Ġaccurate": 6427,
      "Ġsurvive": 6428,
      "Ġsurvival": 6429,
      "Ġremoving": 6430,
      "Ġautomatically": 6431,
      "Ġestimates": 6432,
      "allelic": 6433,
      "Ġlatter": 6434,
      "ĠAssortment": 6435,
      "Ġdebt": 6436,
      "ĠFinance": 6437,
      "Ġparticipating": 6438,
      "Ġdistinctive": 6439,
      "Ġsituation": 6440,
      "Ġafford": 6441,
      "Ġstreets": 6442,
      "ĠBenjam": 6443,
      "Ġdegrad": 6444,
      "Ġcomparison": 6445,
      "Ġrecurrence": 6446,
      "Ġoutcropping": 6447,
      "Ġscarring": 6448,
      "ĠKingdom": 6449,
      "Ġexpertise": 6450,
      "ĠAfrica": 6451,
      "liography": 6452,
      "Ġfibros": 6453,
      "Ġdressing": 6454,
      "Ġhouseholds": 6455,
      "ĠSpecies": 6456,
      "Ġconnections": 6457,
      "ĠCauses": 6458,
      "Ġranking": 6459,
      "Ġadjustments": 6460,
      "Ġmechanisms": 6461,
      "Ġvalidation": 6462,
      "Ġconfirmation": 6463,
      "Ġnutrition": 6464,
      "Ġpenal": 6465,
      "Ġbarriers": 6466,
      "ĠPavel": 6467,
      "ĠFrequ": 6468,
      "ĠInvestors": 6469,
      "Ġintricate": 6470,
      "Ġteaching": 6471,
      "ĠComplete": 6472,
      "Ġdepicts": 6473,
      "Ġdepicted": 6474,
      "Ġpushed": 6475,
      "Ġbenzene": 6476,
      "Ġbodies": 6477,
      "Ġstriking": 6478,
      "Ġitchy": 6479,
      "ĠJesus": 6480,
      "Ġsurgeon": 6481,
      "Ġreliable": 6482,
      "Ġmetabolic": 6483,
      "Ġcarbon": 6484,
      "Ġeliminating": 6485,
      "blogspot": 6486,
      "ximity": 6487,
      "Ġseniors": 6488,
      "Ġdivide": 6489,
      "Ġhundreds": 6490,
      "etheless": 6491,
      "Ġstyling": 6492,
      "ĠCorporate": 6493,
      "ĠBlockchain": 6494,
      "Ġchromosomes": 6495,
      "Ġfeedback": 6496,
      "Ġrecyclables": 6497,
      "Ġelevated": 6498,
      "Ġembryonic": 6499,
      "Ġmasculinity": 6500,
      "Ġmilitary": 6501,
      "Ġstraightforward": 6502,
      "Ġcircumcision": 6503,
      "Ġsleep": 6504,
      "Ġsickle": 6505,
      "Ġoxygen": 6506,
      "Ġbonding": 6507,
      "Ġmentorship": 6508,
      "Ġdizygotic": 6509,
      "Ġdangerous": 6510,
      "Ġrendered": 6511,
      "ĠTurkey": 6512,
      "ĠFoundation": 6513,
      "ĠDepartment": 6514,
      "ĠOctober": 6515,
      "Ġrobust": 6516,
      "Ġcommunications": 6517,
      "Ġenterprises": 6518,
      "Ġcooperation": 6519,
      "Ġlegislation": 6520,
      "Ġdisposal": 6521,
      "Ġnutrients": 6522,
      "ĠAgriculture": 6523,
      "unicipality": 6524,
      "Ġcytokines": 6525,
      "Ġroman": 6526,
      "Ġfelt": 6527,
      "Ġfirmly": 6528,
      "Ġmoment": 6529,
      "Ġdinosaurs": 6530,
      "Ġeggs": 6531,
      "Ġstructural": 6532,
      "ĠAvoid": 6533,
      "ĠSmall": 6534,
      "ĠCourt": 6535,
      "ĠBrownell": 6536,
      "ĠMexico": 6537,
      "Ġextensive": 6538,
      "arency": 6539,
      "ĠNieto": 6540,
      "Ġimpossible": 6541,
      "ĠCharles": 6542,
      "Ġconfiguration": 6543,
      "ĠIndustrial": 6544,
      "Ġdispensing": 6545,
      "Ġmelanocytes": 6546,
      "iaturization": 6547,
      "ĠSimilarly": 6548,
      "Burnt": 6549,
      "World": 6550,
      "ktop": 6551,
      "Ġupper": 6552,
      "Ġathlet": 6553,
      "Ġcitiz": 6554,
      "Ġpivotal": 6555,
      "Ġwelfare": 6556,
      "Ġfrost": 6557,
      "Ġfleshy": 6558,
      "Ġbifida": 6559,
      "Ġmerely": 6560,
      "Ġrental": 6561,
      "Ġrebellion": 6562,
      "ĠTERMS": 6563,
      "Ġbeige": 6564,
      "Ġgripping": 6565,
      "Ġglobally": 6566,
      "ĠCopyright": 6567,
      "ĠCeliac": 6568,
      "Ġalcohol": 6569,
      "ĠBoston": 6570,
      "ĠHeliosz": 6571,
      "ĠDEFINITION": 6572,
      "ĠLondon": 6573,
      "ĠNurses": 6574,
      "Ġpermanent": 6575,
      "ĠAlvarez": 6576,
      "ĠTelegram": 6577,
      "ĠBenjamin": 6578,
      "):": 6579,
      "07": 6580,
      "09": 6581,
      "100": 6582,
      "21": 6583,
      "22": 6584,
      "37": 6585,
      "44": 6586,
      "73": 6587,
      "90": 6588,
      "94": 6589,
      "?âĢĿ": 6590,
      "AG": 6591,
      "And": 6592,
      "App": 6593,
      "BT": 6594,
      "Band": 6595,
      "Che": 6596,
      "GBT": 6597,
      "He": 6598,
      "HIP": 6599,
      "Is": 6600,
      "It": 6601,
      "LMs": 6602,
      "MDE": 6603,
      "Mendel": 6604,
      "NF": 6605,
      "Our": 6606,
      "SI": 6607,
      "Tube": 6608,
      "UE": 6609,
      "YY": 6610,
      "ai": 6611,
      "ault": 6612,
      "avers": 6613,
      "ailo": 6614,
      "aude": 6615,
      "bra": 6616,
      "brit": 6617,
      "brown": 6618,
      "cil": 6619,
      "cod": 6620,
      "cific": 6621,
      "cap": 6622,
      "cuss": 6623,
      "cott": 6624,
      "dem": 6625,
      "drop": 6626,
      "eur": 6627,
      "fund": 6628,
      "fire": 6629,
      "fts": 6630,
      "fills": 6631,
      "front": 6632,
      "gu": 6633,
      "gay": 6634,
      "gov": 6635,
      "gadget": 6636,
      "hom": 6637,
      "how": 6638,
      "ham": 6639,
      "hist": 6640,
      "hiz": 6641,
      "iers": 6642,
      "iant": 6643,
      "iosis": 6644,
      "iomas": 6645,
      "ko": 6646,
      "kes": 6647,
      "kind": 6648,
      "kistan": 6649,
      "la": 6650,
      "live": 6651,
      "lings": 6652,
      "liness": 6653,
      "mi": 6654,
      "my": 6655,
      "mir": 6656,
      "mises": 6657,
      "micro": 6658,
      "name": 6659,
      "nals": 6660,
      "natural": 6661,
      "oes": 6662,
      "oors": 6663,
      "pread": 6664,
      "rity": 6665,
      "run": 6666,
      "rors": 6667,
      "rine": 6668,
      "rates": 6669,
      "ses": 6670,
      "supp": 6671,
      "sman": 6672,
      "tw": 6673,
      "tre": 6674,
      "uis": 6675,
      "uous": 6676,
      "uzz": 6677,
      "wal": 6678,
      "with": 6679,
      "well": 6680,
      "wik": 6681,
      "xas": 6682,
      "yal": 6683,
      "ying": 6684,
      "yme": 6685,
      "zbe": 6686,
      "Ð¿": 6687,
      "Ñĥ": 6688,
      "Ġ*": 6689,
      "Ġu": 6690,
      "Ġic": 6691,
      "Ġil": 6692,
      "Ġid": 6693,
      "Ġverse": 6694,
      "Ġuro": 6695,
      "īÑĥ": 6696,
      "Ġton": 6697,
      "Ġtul": 6698,
      "Ġtag": 6699,
      "Ġtall": 6700,
      "Ġtons": 6701,
      "Ġtied": 6702,
      "Ġtaste": 6703,
      "Ġtailo": 6704,
      "Ġack": 6705,
      "inform": 6706,
      "inator": 6707,
      "inforce": 6708,
      "including": 6709,
      "hem": 6710,
      "hend": 6711,
      "rees": 6712,
      "Ġtheore": 6713,
      "Ġsou": 6714,
      "Ġsus": 6715,
      "Ġsqu": 6716,
      "Ġspl": 6717,
      "Ġsquare": 6718,
      "ery": 6719,
      "eracy": 6720,
      "ertil": 6721,
      "enn": 6722,
      "enital": 6723,
      "encies": 6724,
      "enpox": 6725,
      "enya": 6726,
      "atter": 6727,
      "atab": 6728,
      "atile": 6729,
      "Ġcc": 6730,
      "Ġcul": 6731,
      "Ġcam": 6732,
      "Ġcab": 6733,
      "Ġcum": 6734,
      "Ġcand": 6735,
      "Ġcens": 6736,
      "Ġcertific": 6737,
      "Ġcuis": 6738,
      "Ġoils": 6739,
      "esar": 6740,
      "esee": 6741,
      "allow": 6742,
      "itors": 6743,
      "Ġpit": 6744,
      "Ġpink": 6745,
      "Ġpier": 6746,
      "Ġpitch": 6747,
      "Ġpupp": 6748,
      "Ġpediatric": 6749,
      "Ġpuzz": 6750,
      "orial": 6751,
      "isan": 6752,
      "ishes": 6753,
      "anas": 6754,
      "anks": 6755,
      "Ġwise": 6756,
      "Ġwides": 6757,
      "Ġwonder": 6758,
      "Ġwitness": 6759,
      "Ġfis": 6760,
      "Ġfan": 6761,
      "Ġfans": 6762,
      "Ġfox": 6763,
      "Ġfellow": 6764,
      "Ġflex": 6765,
      "Ġfields": 6766,
      "Ġbed": 6767,
      "Ġbask": 6768,
      "Ġbrie": 6769,
      "Ġbonds": 6770,
      "Ġbattle": 6771,
      "Ġbronze": 6772,
      "Ġindu": 6773,
      "Ġincision": 6774,
      "edies": 6775,
      "edge": 6776,
      "icros": 6777,
      "ouis": 6778,
      "oupon": 6779,
      "arage": 6780,
      "arks": 6781,
      "arters": 6782,
      "Ġtol": 6783,
      "Ġtoward": 6784,
      "Ġtolu": 6785,
      "Ġmag": 6786,
      "Ġmist": 6787,
      "Ġmature": 6788,
      "Ġmountains": 6789,
      "Ġdate": 6790,
      "Ġdie": 6791,
      "Ġderm": 6792,
      "Ġdaff": 6793,
      "Ġduplicate": 6794,
      "room": 6795,
      "enter": 6796,
      "leeding": 6797,
      "Ġhi": 6798,
      "Ġhorm": 6799,
      "Ġhidden": 6800,
      "aser": 6801,
      "asure": 6802,
      "cts": 6803,
      "omy": 6804,
      "Ġrej": 6805,
      "Ġreaction": 6806,
      "Ġrewards": 6807,
      "Ġrenew": 6808,
      "Ġepid": 6809,
      "Ġthrown": 6810,
      "ĠTV": 6811,
      "ĠTer": 6812,
      "ĠTip": 6813,
      "ĠTaking": 6814,
      "ĠTips": 6815,
      "ĠTax": 6816,
      "ĠTube": 6817,
      "ĠTouch": 6818,
      "veill": 6819,
      "ilk": 6820,
      "iling": 6821,
      "ilies": 6822,
      "iluss": 6823,
      "ilcott": 6824,
      "usual": 6825,
      "ussel": 6826,
      "Ġgas": 6827,
      "Ġgut": 6828,
      "Ġgun": 6829,
      "Ġgains": 6830,
      "Ġgently": 6831,
      "Ġgets": 6832,
      "Ġgadget": 6833,
      "Ġgentle": 6834,
      "Ġgifted": 6835,
      "Ġgendered": 6836,
      "Ġnodes": 6837,
      "ceeding": 6838,
      "iments": 6839,
      "imize": 6840,
      "uts": 6841,
      "utors": 6842,
      "iral": 6843,
      "irable": 6844,
      "ether": 6845,
      "ette": 6846,
      "stud": 6847,
      "stitution": 6848,
      "iding": 6849,
      "iday": 6850,
      "idential": 6851,
      "olit": 6852,
      "urb": 6853,
      "urus": 6854,
      "uries": 6855,
      "ota": 6856,
      "otential": 6857,
      "Ġliqu": 6858,
      "Ġlien": 6859,
      "Ġlaser": 6860,
      "Ġlilies": 6861,
      "rays": 6862,
      "rands": 6863,
      "Ġstream": 6864,
      "Ġstories": 6865,
      "Ġstamps": 6866,
      "ĠAud": 6867,
      "ĠAtt": 6868,
      "ĠAlex": 6869,
      "Ġyield": 6870,
      "Ġonions": 6871,
      "Ġproof": 6872,
      "Ġproactive": 6873,
      "Ġproximity": 6874,
      "ules": 6875,
      "ĠSat": 6876,
      "ĠSing": 6877,
      "ĠSup": 6878,
      "ĠSign": 6879,
      "ĠSaf": 6880,
      "ĠSeries": 6881,
      "ĠScholar": 6882,
      "Ġconvey": 6883,
      "ĠCr": 6884,
      "ĠCy": 6885,
      "ĠCro": 6886,
      "ĠCOD": 6887,
      "ĠCoun": 6888,
      "ĠCertain": 6889,
      "ĠCotton": 6890,
      "Ġasking": 6891,
      "Ġassem": 6892,
      "ifts": 6893,
      "ifier": 6894,
      "Ġana": 6895,
      "Ġanthrop": 6896,
      "Ġanxiety": 6897,
      "aying": 6898,
      "ayan": 6899,
      "eled": 6900,
      "ello": 6901,
      "ama": 6902,
      "amines": 6903,
      "oding": 6904,
      "Ġwhate": 6905,
      "ĠBB": 6906,
      "ĠBre": 6907,
      "ĠBas": 6908,
      "ĠBri": 6909,
      "ĠBack": 6910,
      "ĠBalth": 6911,
      "ĠBlood": 6912,
      "ĠMA": 6913,
      "ĠMc": 6914,
      "ĠMr": 6915,
      "ĠMes": 6916,
      "ĠMel": 6917,
      "ĠMod": 6918,
      "ĠMad": 6919,
      "ĠMedi": 6920,
      "through": 6921,
      "Ġcoming": 6922,
      "ĠPat": 6923,
      "ĠPit": 6924,
      "ĠPar": 6925,
      "ĠPri": 6926,
      "ĠPass": 6927,
      "ĠPerm": 6928,
      "ĠPalm": 6929,
      "ĠPotential": 6930,
      "Ġsew": 6931,
      "Ġseaf": 6932,
      "Ġsemi": 6933,
      "Ġheal": 6934,
      "ciences": 6935,
      "Ġdecent": 6936,
      "abs": 6937,
      "Ġchains": 6938,
      "Ġchrys": 6939,
      "ĠFord": 6940,
      "ĠFile": 6941,
      "ĠFace": 6942,
      "ĠFather": 6943,
      "ĠFern": 6944,
      "ĠFrame": 6945,
      "ivities": 6946,
      "ivolt": 6947,
      "iviral": 6948,
      "orer": 6949,
      "keley": 6950,
      "quarters": 6951,
      "ppy": 6952,
      "ĠWood": 6953,
      "ĠWell": 6954,
      "ĠWilli": 6955,
      "ĠWindows": 6956,
      "sses": 6957,
      "Ġrim": 6958,
      "Ġrough": 6959,
      "Ġrhiz": 6960,
      "ortic": 6961,
      "accept": 6962,
      "ĠEl": 6963,
      "ĠEv": 6964,
      "ĠEas": 6965,
      "ĠEffect": 6966,
      "Ġenric": 6967,
      "Ġends": 6968,
      "emia": 6969,
      "ĠHar": 6970,
      "ĠHol": 6971,
      "ĠHave": 6972,
      "ĠHeter": 6973,
      "ĠHugues": 6974,
      "ĠHamil": 6975,
      "ĠHubb": 6976,
      "udget": 6977,
      "ĠDra": 6978,
      "ĠDem": 6979,
      "ĠDav": 6980,
      "ĠDitch": 6981,
      "umb": 6982,
      "ump": 6983,
      "umer": 6984,
      "Ġloose": 6985,
      "Ġloved": 6986,
      "Ġlosing": 6987,
      "ĠGre": 6988,
      "ĠGender": 6989,
      "ĠGarage": 6990,
      "Ġleaving": 6991,
      "Ġprett": 6992,
      "ptom": 6993,
      "ptember": 6994,
      "Ġshift": 6995,
      "Ġshifts": 6996,
      "opo": 6997,
      "opic": 6998,
      "opus": 6999,
      "ĠRose": 7000,
      "ĠRober": 7001,
      "Ġplate": 7002,
      "Ġplans": 7003,
      "Ġplug": 7004,
      "ĠLike": 7005,
      "ĠLind": 7006,
      "ĠLife": 7007,
      "ĠLanguage": 7008,
      "ĠLouis": 7009,
      "Ġimaging": 7010,
      "ĠInnov": 7011,
      "Ġcompr": 7012,
      "Ġcompan": 7013,
      "Ġcomprom": 7014,
      "Ġcomposed": 7015,
      "Ġcompelling": 7016,
      "perity": 7017,
      "Ġintra": 7018,
      "thern": 7019,
      "Ġabund": 7020,
      "sole": 7021,
      "soft": 7022,
      "Ġresist": 7023,
      "Ġword": 7024,
      "Ġworse": 7025,
      "Ġworship": 7026,
      "ĠNation": 7027,
      "ĠNER": 7028,
      "ĠNitrogen": 7029,
      "ĠNHS": 7030,
      "ĠNovember": 7031,
      "ĠThree": 7032,
      "Ġadmitted": 7033,
      "ĠOsman": 7034,
      "astal": 7035,
      "Ġmanip": 7036,
      "Ġweigh": 7037,
      "Ġweap": 7038,
      "Ġgenu": 7039,
      "ologically": 7040,
      "ibilities": 7041,
      "irect": 7042,
      "licit": 7043,
      "lications": 7044,
      "Ġinfect": 7045,
      "Ġdiscre": 7046,
      "Ġdischarge": 7047,
      "ditary": 7048,
      "Ġune": 7049,
      "Ġunable": 7050,
      "Ġunited": 7051,
      "Ġunlike": 7052,
      "Ġunknown": 7053,
      "Ġunsafe": 7054,
      "Ġunusual": 7055,
      "Ġapparent": 7056,
      "Ġapplying": 7057,
      "Ġappetite": 7058,
      "Ġbutter": 7059,
      "Ġtrace": 7060,
      "Ġtraditions": 7061,
      "Ġkn": 7062,
      "psy": 7063,
      "Ġpose": 7064,
      "Ġpoorer": 7065,
      "Ġspeak": 7066,
      "Ġspot": 7067,
      "Ġspark": 7068,
      "Ġspina": 7069,
      "ĠUzbe": 7070,
      "Ġfeeding": 7071,
      "Ġju": 7072,
      "Ġjonqu": 7073,
      "order": 7074,
      "inder": 7075,
      "Ġpermission": 7076,
      "erving": 7077,
      "ervation": 7078,
      "ogel": 7079,
      "ogany": 7080,
      "Ġoutputs": 7081,
      "Ġstudied": 7082,
      "eping": 7083,
      "ubico": 7084,
      "Ġmaybe": 7085,
      "neys": 7086,
      "Ġentered": 7087,
      "Ġcold": 7088,
      "Ġoffices": 7089,
      "Ġdiver": 7090,
      "Ġdipl": 7091,
      "ĠYOU": 7092,
      "ĠYubico": 7093,
      "Ġcommod": 7094,
      "Ġcommunic": 7095,
      "Ġundergo": 7096,
      "Ġscan": 7097,
      "Ġscene": 7098,
      "Ġsched": 7099,
      "Ġparty": 7100,
      "ĠJay": 7101,
      "anges": 7102,
      "angiomas": 7103,
      "itely": 7104,
      "Ġqueries": 7105,
      "ygote": 7106,
      "Ġproven": 7107,
      "Ġprovision": 7108,
      "ipedia": 7109,
      "occo": 7110,
      "Ġblooms": 7111,
      "Ġdesp": 7112,
      "Ġdesire": 7113,
      "Ġdesktop": 7114,
      "Ġgrows": 7115,
      "ĠStr": 7116,
      "ĠStress": 7117,
      "ĠStones": 7118,
      "Ġhelped": 7119,
      "Ġhelpful": 7120,
      "Ġworkplace": 7121,
      "Ġemiss": 7122,
      "Ġexamines": 7123,
      "Ġexamined": 7124,
      "Ġsupplements": 7125,
      "Ġtimely": 7126,
      "ĠKenya": 7127,
      "Ġraw": 7128,
      "Ġramp": 7129,
      "Ġraising": 7130,
      "Ġreput": 7131,
      "Ġinterface": 7132,
      "Ġintermedi": 7133,
      "ĠView": 7134,
      "ĠVict": 7135,
      "ĠVera": 7136,
      "ĠVogel": 7137,
      "Ġearn": 7138,
      "Ġspecified": 7139,
      "Ġspecifically": 7140,
      "oken": 7141,
      "Ġhumidity": 7142,
      "Ġgoes": 7143,
      "Ġpeace": 7144,
      "Ġwatering": 7145,
      "ĠChick": 7146,
      "ĠChapter": 7147,
      "ĠChronic": 7148,
      "ĠChilcott": 7149,
      "Ġenvironmentally": 7150,
      "phthal": 7151,
      "Ġexpensive": 7152,
      "ovician": 7153,
      "Ġrelating": 7154,
      "ividuals": 7155,
      "Ġbox": 7156,
      "Ġbooth": 7157,
      "Ġ35": 7158,
      "weight": 7159,
      "Ġamaryllis": 7160,
      "Ġregul": 7161,
      "Ġregister": 7162,
      "Ġregistration": 7163,
      "Ġremark": 7164,
      "Ġformer": 7165,
      "Ġacting": 7166,
      "Ġactual": 7167,
      "appe": 7168,
      "Ġplanted": 7169,
      "rones": 7170,
      "Ġmetal": 7171,
      "Ġentering": 7172,
      "ĠRequ": 7173,
      "ĠRecord": 7174,
      "Ġcapabilities": 7175,
      "Ġkeys": 7176,
      "Ġattrib": 7177,
      "Ġattacks": 7178,
      "Ġserves": 7179,
      "Ġmoderation": 7180,
      "Ġhomoph": 7181,
      "Ġprocessed": 7182,
      "ĠSever": 7183,
      "ĠSecurity": 7184,
      "ĠSegregation": 7185,
      "Ġapproved": 7186,
      "Ġsubtle": 7187,
      "Ġminimal": 7188,
      "Ġcovers": 7189,
      "ceptive": 7190,
      "Ġwhereby": 7191,
      "Ġextent": 7192,
      "Ġextend": 7193,
      "Ġextinct": 7194,
      "Ġextended": 7195,
      "Ġextinctions": 7196,
      "resp": 7197,
      "Ġfounded": 7198,
      "Ġfounders": 7199,
      "ĠAsia": 7200,
      "Ġgenerate": 7201,
      "Ġfactory": 7202,
      "Ġdrawn": 7203,
      "Ġcenturies": 7204,
      "Ġphenoc": 7205,
      "Ġmarked": 7206,
      "Ġrefining": 7207,
      "ĠProduct": 7208,
      "ledged": 7209,
      "Ġ500": 7210,
      "Ġfinance": 7211,
      "Ġfinished": 7212,
      "ĠFrances": 7213,
      "ĠExtension": 7214,
      "Ġrevised": 7215,
      "ĠAny": 7216,
      "Ġprevented": 7217,
      "Ġartwork": 7218,
      "Ġartistic": 7219,
      "ĠNebr": 7220,
      "Ġsocially": 7221,
      "ĠYouTube": 7222,
      "Ġhumanistic": 7223,
      "Ġmarketing": 7224,
      "Ġtemple": 7225,
      "Ġswallow": 7226,
      "odynamic": 7227,
      "Ġsymptom": 7228,
      "Ġapart": 7229,
      "Ġantigen": 7230,
      "Ġcontribution": 7231,
      "Ġcontributions": 7232,
      "Ġcontributed": 7233,
      "aspberry": 7234,
      "CSE": 7235,
      "iolet": 7236,
      "Ġphenotypically": 7237,
      "Ġcurriculum": 7238,
      "Ġcuriosity": 7239,
      "imalayan": 7240,
      "Ġassistance": 7241,
      "ĠUnion": 7242,
      "ĠUnfortunately": 7243,
      "Ġpracticing": 7244,
      "Ġtopical": 7245,
      "Ġgray": 7246,
      "Ġgrace": 7247,
      "Ġgrapp": 7248,
      "ĠPlus": 7249,
      "ĠHead": 7250,
      "Ġreports": 7251,
      "oids": 7252,
      "Ġpowers": 7253,
      "ĠAdden": 7254,
      "ĠAdvert": 7255,
      "Ġprofit": 7256,
      "Ġprofile": 7257,
      "Ġprofound": 7258,
      "Ġprofiles": 7259,
      "ammable": 7260,
      "Ġbiod": 7261,
      "Ġbiases": 7262,
      "Ġretention": 7263,
      "Ġcontinents": 7264,
      "Ġdecide": 7265,
      "Ġtrees": 7266,
      "Ġdelays": 7267,
      "Ġdelicate": 7268,
      "ĠDev": 7269,
      "Ġimmunity": 7270,
      "enetics": 7271,
      "Ġflammable": 7272,
      "Ġdownloaded": 7273,
      "Ġnormative": 7274,
      "Ġnormally": 7275,
      "Ġearths": 7276,
      "2024": 7277,
      "ĠAndroid": 7278,
      "Ġprototypes": 7279,
      "TIONSHIP": 7280,
      "Ġfinds": 7281,
      "Ġfinding": 7282,
      "ictions": 7283,
      "Ġwastewater": 7284,
      "Ġmeasuring": 7285,
      "nova": 7286,
      "Ġblue": 7287,
      "Ġblind": 7288,
      "ĠTeacher": 7289,
      "ĠTexas": 7290,
      "Ġ1774": 7291,
      "Ġ2014": 7292,
      "Ġ2018": 7293,
      "Ġfinancing": 7294,
      "Ġoblig": 7295,
      "lessly": 7296,
      "Ġheterozygote": 7297,
      "Ġcontained": 7298,
      "Ġencoding": 7299,
      "Ġengine": 7300,
      "Ġfeeling": 7301,
      "Ġempow": 7302,
      "Ġcorpor": 7303,
      "Ġportion": 7304,
      "Ġportray": 7305,
      "Ġlighting": 7306,
      "ylene": 7307,
      "Ġ85": 7308,
      "Ġposed": 7309,
      "Ġrestore": 7310,
      "Ġlogs": 7311,
      "Ġsuccessfully": 7312,
      "Ġlandfills": 7313,
      "Ġconstra": 7314,
      "Ġspecialists": 7315,
      "Ġspecializes": 7316,
      "Ġopened": 7317,
      "Ġdirection": 7318,
      "Ġamongst": 7319,
      "Ġcharacterized": 7320,
      "Ġbrings": 7321,
      "Ġmatch": 7322,
      "Ġmatur": 7323,
      "Ġdriving": 7324,
      "Ġdrinking": 7325,
      "Ġcombinations": 7326,
      "Ġexploration": 7327,
      "Ġinfluential": 7328,
      "PLETE": 7329,
      "ĠSports": 7330,
      "generated": 7331,
      "Ġcalm": 7332,
      "Ġpassion": 7333,
      "ĠAtlant": 7334,
      "Ġnecessity": 7335,
      "Ġinteresting": 7336,
      "factory": 7337,
      "Ġconception": 7338,
      "Ġadapted": 7339,
      "Ġteams": 7340,
      "Ġtalking": 7341,
      "Ġpsychodynamic": 7342,
      "Ġfalling": 7343,
      "Ġmasses": 7344,
      "ĠAcid": 7345,
      "ĠAcute": 7346,
      "Ġvolun": 7347,
      "ĠDiscuss": 7348,
      "Ġintegrating": 7349,
      "Ġintegrity": 7350,
      "Ġjournals": 7351,
      "ĠCommit": 7352,
      "Ġcomplexity": 7353,
      "Ġcomplexities": 7354,
      "ĠÂ©": 7355,
      "Ġmindset": 7356,
      "ĠInfo": 7357,
      "Ġsocio": 7358,
      "Ġsocietal": 7359,
      "Ġscalable": 7360,
      "Ġaddressing": 7361,
      "azart": 7362,
      "Ġseverity": 7363,
      "Ġfunctioning": 7364,
      "Ġfunctionality": 7365,
      "Ġerrands": 7366,
      "Ġfeatured": 7367,
      "ĠKorea": 7368,
      "Ġstronger": 7369,
      "Ġconsiderable": 7370,
      "ĠGodman": 7371,
      "Ġprincip": 7372,
      "Ġdeliver": 7373,
      "Ġillustrate": 7374,
      "Ġaimed": 7375,
      "Ġreceived": 7376,
      "Ġexisted": 7377,
      "Ġexistence": 7378,
      "Ġviable": 7379,
      "Ġhappen": 7380,
      "Ġacceptance": 7381,
      "Ġauthors": 7382,
      "Ġprogression": 7383,
      "Ġprogressive": 7384,
      "Ġprotective": 7385,
      "Ġinitially": 7386,
      "Ġcourt": 7387,
      "Ġgrounding": 7388,
      "Ġlimits": 7389,
      "Ġlifelong": 7390,
      "ĠSheet": 7391,
      "Ġroutes": 7392,
      "Ġenhancing": 7393,
      "Ġminimally": 7394,
      "Ġcentralized": 7395,
      "Ġdigitalization": 7396,
      "Ġwalked": 7397,
      "Ġbegins": 7398,
      "Ġprobes": 7399,
      "Ġprobability": 7400,
      "Ġconducting": 7401,
      "ĠCloud": 7402,
      "ĠColor": 7403,
      "ĠColomb": 7404,
      "Ġchickens": 7405,
      "ĠGenus": 7406,
      "ĠGenotype": 7407,
      "ĠGenesee": 7408,
      "Ġcomputers": 7409,
      "Ġperiods": 7410,
      "Ġvaluation": 7411,
      "Ġpersonalities": 7412,
      "ĠTechnologies": 7413,
      "Ġemployers": 7414,
      "Ġfosters": 7415,
      "ĠTrunking": 7416,
      "ĠTriluss": 7417,
      "ĠCarl": 7418,
      "ĠMedicine": 7419,
      "Ġviewer": 7420,
      "Ġpreference": 7421,
      "Ġtextile": 7422,
      "OMPLETE": 7423,
      "Ġtruly": 7424,
      "Ġslaves": 7425,
      "Ġslavery": 7426,
      "iciencies": 7427,
      "ĠCentury": 7428,
      "ĠPerhaps": 7429,
      "Ġshaped": 7430,
      "Ġcompetitive": 7431,
      "Ġdescribe": 7432,
      "Ġvegetarians": 7433,
      "chester": 7434,
      "Ġxylene": 7435,
      "Ġsidewal": 7436,
      "Ġcyber": 7437,
      "Ġfarmer": 7438,
      "Ġreaching": 7439,
      "Ġreplen": 7440,
      "Ġreplace": 7441,
      "Ġreplaced": 7442,
      "ĠPope": 7443,
      "Ġruler": 7444,
      "Ġruling": 7445,
      "Ġruled": 7446,
      "Ġcomprehend": 7447,
      "Ġintroduced": 7448,
      "Ġspirits": 7449,
      "Ġreflecting": 7450,
      "Ġestablishment": 7451,
      "Ġmarine": 7452,
      "ĠDiagn": 7453,
      "ĠDihybrid": 7454,
      "Ġshares": 7455,
      "Ġobserv": 7456,
      "Ġobserve": 7457,
      "Ġbringing": 7458,
      "Ġmutation": 7459,
      "Ġrevealed": 7460,
      "ĠShow": 7461,
      "Ġtransparency": 7462,
      "Ġsensitive": 7463,
      "ĠCountries": 7464,
      "Ġdeeply": 7465,
      "Ġcomponent": 7466,
      "Ġkilling": 7467,
      "Ġentrepreneur": 7468,
      "Ġscenario": 7469,
      "Ġorganisation": 7470,
      "Ġefficiently": 7471,
      "Ġencrypted": 7472,
      "Ġdemonstrating": 7473,
      "Ã©n": 7474,
      "Ġsamples": 7475,
      "Ġwidely": 7476,
      "Ġbasal": 7477,
      "Ġbreath": 7478,
      "ourage": 7479,
      "Ġstatus": 7480,
      "Ġstatistical": 7481,
      "Ġstereotyp": 7482,
      "ĠInteg": 7483,
      "Ġprocedures": 7484,
      "Ġconvert": 7485,
      "osaurus": 7486,
      "ĠChristian": 7487,
      "Ġ1884": 7488,
      "Ġ1888": 7489,
      "Ġreviewers": 7490,
      "Ġtablet": 7491,
      "Ġlatest": 7492,
      "ĠCurrent": 7493,
      "ĠCurriculum": 7494,
      "ĠCongenital": 7495,
      "ĠPrime": 7496,
      "ĠGetty": 7497,
      "Ġ250": 7498,
      "ĠLoss": 7499,
      "ĠOrd": 7500,
      "ĠOverall": 7501,
      "Ġarrange": 7502,
      "Ġextremely": 7503,
      "Ġfluids": 7504,
      "Ġparticipation": 7505,
      "Ġguidelines": 7506,
      "ĠEuropean": 7507,
      "casting": 7508,
      "ĠXylitol": 7509,
      "Ġzygote": 7510,
      "Ġeaters": 7511,
      "Ġdegree": 7512,
      "Ġcomparable": 7513,
      "Ġconsulting": 7514,
      "Ġcollectively": 7515,
      "Ġemotions": 7516,
      "Ġsettled": 7517,
      "Ġrespiratory": 7518,
      "ĠDefects": 7519,
      "ĠDefinition": 7520,
      "Ġconstantly": 7521,
      "Ġinjections": 7522,
      "Ġincorporate": 7523,
      "Ġlisting": 7524,
      "Ġlinked": 7525,
      "ĠSurgical": 7526,
      "ĠCaesar": 7527,
      "Ġhabitats": 7528,
      "ĠBlack": 7529,
      "ĠNTDs": 7530,
      "ĠSocialization": 7531,
      "Ġpasswordless": 7532,
      "Ġoriginally": 7533,
      "Ġnutritious": 7534,
      "Ġdestroyed": 7535,
      "Ġbabies": 7536,
      "Ġmastering": 7537,
      "Ġgrew": 7538,
      "Ġprosperity": 7539,
      "Ġvitamin": 7540,
      "ĠRELA": 7541,
      "ĠReport": 7542,
      "ĠRussians": 7543,
      "ĠInvesting": 7544,
      "Ġrespectively": 7545,
      "Ġregarding": 7546,
      "Ġinvolvement": 7547,
      "ĠContact": 7548,
      "Ġencourage": 7549,
      "Ġencouraged": 7550,
      "Ġexplained": 7551,
      "ĠPrevention": 7552,
      "Ġcampaigns": 7553,
      "Ġstruggling": 7554,
      "Ġingred": 7555,
      "Ġfairly": 7556,
      "Ġmissed": 7557,
      "Ġharvest": 7558,
      "ethiop": 7559,
      "ĠAbout": 7560,
      "Ġconcentration": 7561,
      "Ġcomfortable": 7562,
      "Ġheavy": 7563,
      "ĠEmily": 7564,
      "ĠNonetheless": 7565,
      "Ġcontracts": 7566,
      "Ġoutlines": 7567,
      "Ġscrut": 7568,
      "Ġradiation": 7569,
      "Ġrelief": 7570,
      "Ġrelievers": 7571,
      "Ġmetabol": 7572,
      "Ġdeposits": 7573,
      "Ġleadership": 7574,
      "ĠProgress": 7575,
      "Ġcloser": 7576,
      "Ġclosed": 7577,
      "limited": 7578,
      "paid": 7579,
      "Ġtitle": 7580,
      "Ġtackle": 7581,
      "Ġtackling": 7582,
      "Ġfinger": 7583,
      "Ġfingers": 7584,
      "Ġnavigate": 7585,
      "Ġalternative": 7586,
      "ĠGuide": 7587,
      "ĠLifestyle": 7588,
      "ĠLastly": 7589,
      "Ġadminist": 7590,
      "Ġparadig": 7591,
      "aught": 7592,
      "aughter": 7593,
      "Ġsummar": 7594,
      "Ġembracing": 7595,
      "Ġprioritize": 7596,
      "ĠSwitching": 7597,
      "Ġemphasizing": 7598,
      "Ġabnormalities": 7599,
      "Ġneighborhoods": 7600,
      "growing": 7601,
      "Ġultimately": 7602,
      "Ġpenetrant": 7603,
      "Ġwireframe": 7604,
      "Ġberries": 7605,
      "Ġtowns": 7606,
      "Ġglobe": 7607,
      "ĠCreating": 7608,
      "Ġallocation": 7609,
      "Ġornamental": 7610,
      "esthetic": 7611,
      "ĠPhysics": 7612,
      "Ġvulnerable": 7613,
      "ĠHandling": 7614,
      "ĠHostas": 7615,
      "Ġweakness": 7616,
      "Ġbuttocks": 7617,
      "Ġscheme": 7618,
      "Ġupdate": 7619,
      "Ġrainfall": 7620,
      "Ġsurrounding": 7621,
      "Ġexpanded": 7622,
      "ĠAddress": 7623,
      "Ġfemininity": 7624,
      "Ġproportion": 7625,
      "ĠApproach": 7626,
      "Ġprevalent": 7627,
      "ĠArticle": 7628,
      "Ġinstitutional": 7629,
      "Ġenthusiasm": 7630,
      "lishers": 7631,
      "longed": 7632,
      "ĠÑīÑĥ": 7633,
      "Ġmagnet": 7634,
      "Ġdomestic": 7635,
      "Ġrecessives": 7636,
      "Ġthoroughly": 7637,
      "Ġnerves": 7638,
      "Ġlength": 7639,
      "Ġsticky": 7640,
      "Ġyogurt": 7641,
      "ĠSolid": 7642,
      "ĠMorocco": 7643,
      "ĠPublishers": 7644,
      "Ġhemoglob": 7645,
      "Ġvictim": 7646,
      "Ġenzyme": 7647,
      "ĠDownload": 7648,
      "ĠReduced": 7649,
      "Ġinventory": 7650,
      "Ġclimograph": 7651,
      "Ġinterfere": 7652,
      "Ġinterpret": 7653,
      "Ġsurprised": 7654,
      "Ġattempt": 7655,
      "Ġinsurance": 7656,
      "Ġcultivars": 7657,
      "ĠAndorra": 7658,
      "Ġmajestic": 7659,
      "Ġrestricted": 7660,
      "Ġsatellites": 7661,
      "ĠChemical": 7662,
      "ĠSouthwest": 7663,
      "Ġburlesque": 7664,
      "ĠAssociation": 7665,
      "Ġincorporating": 7666,
      "ĠHepatitis": 7667,
      "cDdEE": 7668,
      "depth": 7669,
      "Ġbrowser": 7670,
      "Ġmucus": 7671,
      "Ġmammals": 7672,
      "Ġreptiles": 7673,
      "ĠTulip": 7674,
      "Ġsteady": 7675,
      "Ġforgotten": 7676,
      "ĠSuccess": 7677,
      "ĠCambridge": 7678,
      "Ġhabits": 7679,
      "ĠBerkeley": 7680,
      "ĠBenefits": 7681,
      "Ġsequence": 7682,
      "ĠFestival": 7683,
      "ĠFlower": 7684,
      "Ġrhythm": 7685,
      "ĠEstablish": 7686,
      "ĠDirector": 7687,
      "ĠDISCORDANCE": 7688,
      "ĠGregor": 7689,
      "Ġcontrovers": 7690,
      "Ġadequate": 7691,
      "Ġemancipation": 7692,
      "ĠVeh": 7693,
      "ĠVenture": 7694,
      "ĠChildren": 7695,
      "Ġpractitioner": 7696,
      "Ġgraphics": 7697,
      "Ġelectrolyte": 7698,
      "Ġmahogany": 7699,
      "Ġopposite": 7700,
      "Ġnoncash": 7701,
      "Ġexplanation": 7702,
      "Ġaffordable": 7703,
      "Ġfibrosis": 7704,
      "Ġcitizens": 7705,
      "Chege": 7706,
      "GBTQ": 7707,
      "Health": 7708,
      "MDEs": 7709,
      "britannica": 7710,
      "funding": 7711,
      "Ġurolog": 7712,
      "Ġtulips": 7713,
      "Ġtailored": 7714,
      "Ġacknow": 7715,
      "inforcement": 7716,
      "Ġsquash": 7717,
      "atabase": 7718,
      "Ġcuisine": 7719,
      "Ġwidespread": 7720,
      "Ġtoluene": 7721,
      "Ġdaffod": 7722,
      "Ġepidermis": 7723,
      "veillance": 7724,
      "ussell": 7725,
      "ĠAlexander": 7726,
      "ĠSupreme": 7727,
      "ĠSafety": 7728,
      "ĠCODOMINANCE": 7729,
      "Ġwhatever": 7730,
      "ĠBalthazart": 7731,
      "ĠMedium": 7732,
      "ĠPermian": 7733,
      "ivolta": 7734,
      "ĠWilliam": 7735,
      "ĠHamilton": 7736,
      "ĠGarageBand": 7737,
      "Ġpretty": 7738,
      "ĠRobert": 7739,
      "ĠUzbekistan": 7740,
      "Ġrampant": 7741,
      "ĠChickenpox": 7742,
      "phthalm": 7743,
      "Ġhomophob": 7744,
      "ĠFrancesco": 7745,
      "ĠNebraska": 7746,
      "ĠAddenbro": 7747,
      "ĠAdvertiser": 7748,
      "TIONSHIPS": 7749,
      "ĠGodmanchester": 7750,
      "ĠTrilussa": 7751,
      "ĠRELATIONSHIPS": 7752,
      "ĠÑīÑĥÐ¿": 7753,
      "Ġhemoglobin": 7754,
      "\",": 7755,
      "\".": 7756,
      "%)": 7757,
      "%,": 7758,
      "%.": 7759,
      ",Â»": 7760,
      "14": 7761,
      "27": 7762,
      "35": 7763,
      "42": 7764,
      "67": 7765,
      "72": 7766,
      "77": 7767,
      "80": 7768,
      "92": 7769,
      "99": 7770,
      "An": 7771,
      "Aqu": 7772,
      "BA": 7773,
      "Be": 7774,
      "BLE": 7775,
      "CN": 7776,
      "CO": 7777,
      "CTION": 7778,
      "COMPLETE": 7779,
      "CcDdEE": 7780,
      "EP": 7781,
      "En": 7782,
      "Epistatic": 7783,
      "FL": 7784,
      "Friendly": 7785,
      "How": 7786,
      "If": 7787,
      "LP": 7788,
      "NVI": 7789,
      "NCTION": 7790,
      "OW": 7791,
      "On": 7792,
      "PK": 7793,
      "Pe": 7794,
      "Pp": 7795,
      "Pro": 7796,
      "RI": 7797,
      "RON": 7798,
      "RAM": 7799,
      "SE": 7800,
      "Se": 7801,
      "So": 7802,
      "UR": 7803,
      "UEN": 7804,
      "Voyager": 7805,
      "War": 7806,
      "Windows": 7807,
      "You": 7808,
      "aet": 7809,
      "aid": 7810,
      "aac": 7811,
      "aks": 7812,
      "aze": 7813,
      "bles": 7814,
      "bale": 7815,
      "bted": 7816,
      "burn": 7817,
      "biology": 7818,
      "blast": 7819,
      "blood": 7820,
      "car": 7821,
      "col": 7822,
      "cers": 7823,
      "cari": 7824,
      "culation": 7825,
      "certain": 7826,
      "cises": 7827,
      "cils": 7828,
      "counter": 7829,
      "dE": 7830,
      "dis": 7831,
      "dact": 7832,
      "doms": 7833,
      "ek": 7834,
      "fat": 7835,
      "fit": 7836,
      "fus": 7837,
      "fra": 7838,
      "fare": 7839,
      "fair": 7840,
      "flight": 7841,
      "function": 7842,
      "fledged": 7843,
      "gy": 7844,
      "gat": 7845,
      "gal": 7846,
      "glo": 7847,
      "gant": 7848,
      "gans": 7849,
      "grippe": 7850,
      "hr": 7851,
      "hor": 7852,
      "hop": 7853,
      "home": 7854,
      "hma": 7855,
      "iem": 7856,
      "iage": 7857,
      "iable": 7858,
      "iards": 7859,
      "jections": 7860,
      "ket": 7861,
      "kiew": 7862,
      "lt": 7863,
      "lat": 7864,
      "lies": 7865,
      "laved": 7866,
      "mes": 7867,
      "mus": 7868,
      "mile": 7869,
      "mph": 7870,
      "miss": 7871,
      "mond": 7872,
      "mium": 7873,
      "mountains": 7874,
      "ns": 7875,
      "non": 7876,
      "nel": 7877,
      "nake": 7878,
      "national": 7879,
      "nichen": 7880,
      "natal": 7881,
      "oa": 7882,
      "oint": 7883,
      "pd": 7884,
      "pol": 7885,
      "pur": 7886,
      "pers": 7887,
      "phen": 7888,
      "park": 7889,
      "pressivity": 7890,
      "poses": 7891,
      "powered": 7892,
      "rus": 7893,
      "rant": 7894,
      "rance": 7895,
      "rans": 7896,
      "rations": 7897,
      "rics": 7898,
      "rint": 7899,
      "rator": 7900,
      "rimin": 7901,
      "ridge": 7902,
      "rdy": 7903,
      "rivolta": 7904,
      "she": 7905,
      "sis": 7906,
      "sic": 7907,
      "sop": 7908,
      "skin": 7909,
      "sitate": 7910,
      "spects": 7911,
      "sApp": 7912,
      "ti": 7913,
      "tion": 7914,
      "tar": 7915,
      "turing": 7916,
      "tually": 7917,
      "tune": 7918,
      "telling": 7919,
      "uk": 7920,
      "ument": 7921,
      "uff": 7922,
      "uations": 7923,
      "ugh": 7924,
      "uade": 7925,
      "ufficient": 7926,
      "vy": 7927,
      "vit": 7928,
      "vance": 7929,
      "vard": 7930,
      "vision": 7931,
      "wk": 7932,
      "waste": 7933,
      "yoming": 7934,
      "zes": 7935,
      "zmir": 7936,
      "Â®": 7937,
      "Â°": 7938,
      "Ð²": 7939,
      "Ġ%": 7940,
      "Ġrow": 7941,
      "Ġtu": 7942,
      "Ġtun": 7943,
      "Ġtast": 7944,
      "Ġtree": 7945,
      "Ġtough": 7946,
      "Ġtick": 7947,
      "Ġtelling": 7948,
      "Ġtried": 7949,
      "Ġtrip": 7950,
      "Ġtaught": 7951,
      "Ġaa": 7952,
      "Ġara": 7953,
      "ino": 7954,
      "inarian": 7955,
      "inery": 7956,
      "reas": 7957,
      "requ": 7958,
      "reland": 7959,
      "review": 7960,
      "oni": 7961,
      "Ġtheories": 7962,
      "Ġson": 7963,
      "Ġsed": 7964,
      "Ġsab": 7965,
      "Ġsight": 7966,
      "Ġsell": 7967,
      "Ġsav": 7968,
      "Ġsorting": 7969,
      "eras": 7970,
      "erative": 7971,
      "enz": 7972,
      "environment": 7973,
      "enues": 7974,
      "enators": 7975,
      "aters": 7976,
      "atial": 7977,
      "athere": 7978,
      "atologist": 7979,
      "Ġcas": 7980,
      "Ġcra": 7981,
      "Ġcool": 7982,
      "Ġcited": 7983,
      "Ġcateg": 7984,
      "Ġcrop": 7985,
      "Ġcows": 7986,
      "Ġcotton": 7987,
      "Ġcouples": 7988,
      "Ġod": 7989,
      "Ġost": 7990,
      "Ġolive": 7991,
      "Ġophthalm": 7992,
      "ndom": 7993,
      "ndraft": 7994,
      "ald": 7995,
      "alp": 7996,
      "alten": 7997,
      "alton": 7998,
      "alysis": 7999,
      "itc": 8000,
      "itz": 8001,
      "itage": 8002,
      "itative": 8003,
      "itivity": 8004,
      "Ġple": 8005,
      "Ġpure": 8006,
      "Ġpric": 8007,
      "Ġpounds": 8008,
      "Ġpilo": 8009,
      "Ġpapers": 8010,
      "ora": 8011,
      "oric": 8012,
      "orge": 8013,
      "orters": 8014,
      "orism": 8015,
      "isers": 8016,
      "isans": 8017,
      "isodes": 8018,
      "isfactory": 8019,
      "aning": 8020,
      "anet": 8021,
      "ancies": 8022,
      "Ġwet": 8023,
      "Ġwip": 8024,
      "Ġwaves": 8025,
      "Ġflo": 8026,
      "Ġfif": 8027,
      "Ġfant": 8028,
      "Ġfri": 8029,
      "Ġfram": 8030,
      "Ġfather": 8031,
      "Ġfix": 8032,
      "Ġfavor": 8033,
      "Ġfumes": 8034,
      "Ġfought": 8035,
      "Ġfertil": 8036,
      "Ġbill": 8037,
      "Ġblog": 8038,
      "Ġblow": 8039,
      "Ġbillions": 8040,
      "Ġbought": 8041,
      "Ġbags": 8042,
      "Ġbumps": 8043,
      "Ġbaths": 8044,
      "Ġinc": 8045,
      "Ġinn": 8046,
      "Ġinput": 8047,
      "eds": 8048,
      "edoms": 8049,
      "icz": 8050,
      "ican": 8051,
      "icher": 8052,
      "icip": 8053,
      "icted": 8054,
      "icious": 8055,
      "oured": 8056,
      "oubted": 8057,
      "arring": 8058,
      "Ġtoes": 8059,
      "Ġmood": 8060,
      "Ġmold": 8061,
      "Ġmunicipality": 8062,
      "Ġmicros": 8063,
      "Ġdri": 8064,
      "Ġdust": 8065,
      "Ġdating": 8066,
      "Ġdates": 8067,
      "Ġdair": 8068,
      "Ġdrast": 8069,
      "Ġdread": 8070,
      "Ġdict": 8071,
      "Ġdense": 8072,
      "Ġdaun": 8073,
      "Ġdoll": 8074,
      "Ġdaughter": 8075,
      "Ġdatabase": 8076,
      "roat": 8077,
      "roved": 8078,
      "Ġhop": 8079,
      "Ġhors": 8080,
      "Ġhars": 8081,
      "ascular": 8082,
      "ctory": 8083,
      "ctuations": 8084,
      "omach": 8085,
      "Ġrely": 8086,
      "Ġreact": 8087,
      "Ġretain": 8088,
      "Ġrenov": 8089,
      "Ġrecip": 8090,
      "Ġeth": 8091,
      "Ġeater": 8092,
      "Ġeternal": 8093,
      "Ġepistatic": 8094,
      "Ġthir": 8095,
      "Ġthres": 8096,
      "Ġthroat": 8097,
      "ĠTour": 8098,
      "ĠTob": 8099,
      "locking": 8100,
      "veys": 8101,
      "ushing": 8102,
      "lyce": 8103,
      "Ġbeat": 8104,
      "Ġbeans": 8105,
      "Ġgar": 8106,
      "Ġgrit": 8107,
      "Ġgays": 8108,
      "Ġgames": 8109,
      "Ġgaze": 8110,
      "Ġist": 8111,
      "Ġnor": 8112,
      "Ġnail": 8113,
      "Ġnone": 8114,
      "Ġnuc": 8115,
      "Ġnausea": 8116,
      "imch": 8117,
      "uth": 8118,
      "uten": 8119,
      "utal": 8120,
      "utrit": 8121,
      "utral": 8122,
      "utants": 8123,
      "iration": 8124,
      "irie": 8125,
      "irts": 8126,
      "chy": 8127,
      "char": 8128,
      "chang": 8129,
      "station": 8130,
      "start": 8131,
      "stone": 8132,
      "stock": 8133,
      "stances": 8134,
      "stream": 8135,
      "stairs": 8136,
      "idneys": 8137,
      "ols": 8138,
      "olith": 8139,
      "olgat": 8140,
      "urch": 8141,
      "urable": 8142,
      "uria": 8143,
      "urassic": 8144,
      "oto": 8145,
      "otear": 8146,
      "Ġlib": 8147,
      "Ġlie": 8148,
      "Ġlakes": 8149,
      "Ġlapt": 8150,
      "rael": 8151,
      "ractions": 8152,
      "raceptive": 8153,
      "rairie": 8154,
      "Ġstood": 8155,
      "Ġstability": 8156,
      "Ġstatic": 8157,
      "Ġstuck": 8158,
      "Ġstrict": 8159,
      "Ġstomach": 8160,
      "ĠAO": 8161,
      "ĠAp": 8162,
      "ĠAir": 8163,
      "ĠAge": 8164,
      "ĠAround": 8165,
      "ĠApr": 8166,
      "ĠAotear": 8167,
      "igor": 8168,
      "igue": 8169,
      "igration": 8170,
      "Ġforce": 8171,
      "Ġyr": 8172,
      "Ġyields": 8173,
      "ĠIzmir": 8174,
      "ĠIreland": 8175,
      "sector": 8176,
      "security": 8177,
      "segregation": 8178,
      "Ġongoing": 8179,
      "Ġprove": 8180,
      "Ġprocl": 8181,
      "Ġproceed": 8182,
      "Ġprojections": 8183,
      "ula": 8184,
      "ulating": 8185,
      "ulates": 8186,
      "ulative": 8187,
      "ĠSC": 8188,
      "ĠSl": 8189,
      "ĠSal": 8190,
      "ĠSus": 8191,
      "ĠSir": 8192,
      "ĠSam": 8193,
      "ĠSord": 8194,
      "ĠSens": 8195,
      "ĠSources": 8196,
      "ĠSene": 8197,
      "ĠSolution": 8198,
      "ĠSuch": 8199,
      "ĠSpecial": 8200,
      "ĠSeni": 8201,
      "ĠSciences": 8202,
      "ĠSnake": 8203,
      "Ġcong": 8204,
      "Ġconvent": 8205,
      "Ġconven": 8206,
      "Ġconcluded": 8207,
      "ĠCC": 8208,
      "ĠCle": 8209,
      "ĠCould": 8210,
      "ĠCON": 8211,
      "ĠClin": 8212,
      "ĠCivil": 8213,
      "ĠCrowd": 8214,
      "ĠCode": 8215,
      "ithological": 8216,
      "ession": 8217,
      "ifest": 8218,
      "Ġalter": 8219,
      "Ġalien": 8220,
      "Ġalarm": 8221,
      "Ġalbat": 8222,
      "Ġanest": 8223,
      "Ġanemia": 8224,
      "agon": 8225,
      "agers": 8226,
      "agram": 8227,
      "agiar": 8228,
      "eling": 8229,
      "eline": 8230,
      "ellect": 8231,
      "elty": 8232,
      "owndraft": 8233,
      "aman": 8234,
      "amic": 8235,
      "amous": 8236,
      "iest": 8237,
      "Ġord": 8238,
      "Ġhack": 8239,
      "Ġhawk": 8240,
      "ĠBC": 8241,
      "ĠBO": 8242,
      "ĠBlo": 8243,
      "ĠBra": 8244,
      "ĠBig": 8245,
      "ĠBased": 8246,
      "ĠBird": 8247,
      "ĠBBC": 8248,
      "ĠBesides": 8249,
      "ĠBholi": 8250,
      "ĠBolgat": 8251,
      "ĠMet": 8252,
      "ĠMid": 8253,
      "ĠMess": 8254,
      "ĠMale": 8255,
      "ĠMakes": 8256,
      "ĠMiles": 8257,
      "ĠMicro": 8258,
      "ĠMountain": 8259,
      "Ġitching": 8260,
      "pection": 8261,
      "unl": 8262,
      "unner": 8263,
      "Ġcomment": 8264,
      "Ġexists": 8265,
      "Ġexclus": 8266,
      "esty": 8267,
      "ĠPC": 8268,
      "ĠPac": 8269,
      "ĠPop": 8270,
      "ĠPublication": 8271,
      "ĠPresident": 8272,
      "ĠPrairie": 8273,
      "Ġseam": 8274,
      "Ġsecon": 8275,
      "Ġsevent": 8276,
      "Ġhesitate": 8277,
      "ciated": 8278,
      "ciety": 8279,
      "aining": 8280,
      "Ġsuble": 8281,
      "Ġsupers": 8282,
      "Ġvac": 8283,
      "Ġvint": 8284,
      "Ġvotes": 8285,
      "Ġvigor": 8286,
      "abb": 8287,
      "abit": 8288,
      "abet": 8289,
      "abled": 8290,
      "Ġchat": 8291,
      "Ġchos": 8292,
      "Ġchron": 8293,
      "ĠFS": 8294,
      "ĠFar": 8295,
      "ĠFur": 8296,
      "ĠFour": 8297,
      "ĠFru": 8298,
      "ĠForm": 8299,
      "ĠFair": 8300,
      "ĠFinal": 8301,
      "quist": 8302,
      "ĠWas": 8303,
      "ĠWild": 8304,
      "ĠWhere": 8305,
      "ĠWomen": 8306,
      "ĠWyoming": 8307,
      "Ġrid": 8308,
      "Ġrival": 8309,
      "Ġranges": 8310,
      "Ġricher": 8311,
      "âĢĻ.": 8312,
      "acult": 8313,
      "ĠEff": 8314,
      "ĠElect": 8315,
      "ĠEvolution": 8316,
      "ĠEras": 8317,
      "ĠENVI": 8318,
      "Ġenem": 8319,
      "Ġenrich": 8320,
      "emin": 8321,
      "emporary": 8322,
      "ĠHQ": 8323,
      "ĠHb": 8324,
      "ĠHem": 8325,
      "ĠHund": 8326,
      "ĠHaz": 8327,
      "ĠHouse": 8328,
      "ĠHello": 8329,
      "ĠHimalayan": 8330,
      "ĠHrdy": 8331,
      "udgment": 8332,
      "romethe": 8333,
      "romquist": 8334,
      "ĠDry": 8335,
      "ĠDeli": 8336,
      "uming": 8337,
      "umber": 8338,
      "Ġloom": 8339,
      "Ġloci": 8340,
      "Ġloans": 8341,
      "Ġlock": 8342,
      "Ġlots": 8343,
      "Ġlooms": 8344,
      "Ġloyal": 8345,
      "ĠGl": 8346,
      "ĠGood": 8347,
      "ĠGerm": 8348,
      "ĠGilli": 8349,
      "ĠGenetics": 8350,
      "Ġlect": 8351,
      "Ġ21": 8352,
      "Ġ23": 8353,
      "Ġ26": 8354,
      "Ġ29": 8355,
      "Ġ2000": 8356,
      "Ġate": 8357,
      "Ġatom": 8358,
      "Ġprecious": 8359,
      "pty": 8360,
      "Ġshut": 8361,
      "Ġshade": 8362,
      "Ġshock": 8363,
      "Ġshading": 8364,
      "opard": 8365,
      "opilar": 8366,
      "ĠRel": 8367,
      "ĠRight": 8368,
      "ĠRub": 8369,
      "ĠRob": 8370,
      "ĠRather": 8371,
      "ĠRoy": 8372,
      "ĠRBC": 8373,
      "ĠRaspberry": 8374,
      "ĠRussell": 8375,
      "ĠRaman": 8376,
      "Ġplus": 8377,
      "ĠLes": 8378,
      "ĠLar": 8379,
      "ĠLays": 8380,
      "ĠLoc": 8381,
      "ĠLily": 8382,
      "ĠLead": 8383,
      "ĠLibrary": 8384,
      "ĠLLMs": 8385,
      "ĠLGBTQ": 8386,
      "Ġimagine": 8387,
      "ĠIns": 8388,
      "ĠInit": 8389,
      "ĠIncre": 8390,
      "ĠInvent": 8391,
      "ĠIncome": 8392,
      "ĠInterm": 8393,
      "osome": 8394,
      "Ġcompens": 8395,
      "Ġcomposing": 8396,
      "ector": 8397,
      "izable": 8398,
      "izational": 8399,
      "Ġintellect": 8400,
      "endar": 8401,
      "Ġnotes": 8402,
      "Ġabstract": 8403,
      "ults": 8404,
      "ĠNO": 8405,
      "ĠNied": 8406,
      "ĠNarc": 8407,
      "ĠNUE": 8408,
      "ĠNutrit": 8409,
      "Ġcontrad": 8410,
      "Ġcontraceptive": 8411,
      "Ġcontemporary": 8412,
      "claration": 8413,
      "ĠThomas": 8414,
      "Ġadvent": 8415,
      "Ġadmission": 8416,
      "ĠON": 8417,
      "ĠOR": 8418,
      "ĠOb": 8419,
      "orms": 8420,
      "ansion": 8421,
      "Ġmanager": 8422,
      "Ġmankind": 8423,
      "Ġmanifest": 8424,
      "Ġwealth": 8425,
      "Ġweather": 8426,
      "Ġweavers": 8427,
      "cks": 8428,
      "cker": 8429,
      "Ġgenomes": 8430,
      "idei": 8431,
      "ologous": 8432,
      "Ġaccomp": 8433,
      "ibliography": 8434,
      "Ġcaut": 8435,
      "elled": 8436,
      "Ġinvalu": 8437,
      "Ġimplies": 8438,
      "licated": 8439,
      "Ġinfamous": 8440,
      "Ġdishes": 8441,
      "Ġdisappe": 8442,
      "rowing": 8443,
      "rowse": 8444,
      "Ġdoor": 8445,
      "Ġindis": 8446,
      "Ġindoors": 8447,
      "Ġindirect": 8448,
      "achie": 8449,
      "igned": 8450,
      "Ġsoft": 8451,
      "Ġuns": 8452,
      "Ġunw": 8453,
      "Ġunity": 8454,
      "Ġunne": 8455,
      "Ġuncom": 8456,
      "Ġunco": 8457,
      "Ġuniversity": 8458,
      "Ġunpro": 8459,
      "Ġunha": 8460,
      "Ġunhealth": 8461,
      "Ġunaccept": 8462,
      "Ġunlimited": 8463,
      "Ġuncertain": 8464,
      "Ġunfair": 8465,
      "Ġappoint": 8466,
      "ĠItaly": 8467,
      "Ġtraces": 8468,
      "Ġtrained": 8469,
      "Ġtradition": 8470,
      "Ġkt": 8471,
      "Ġkitc": 8472,
      "Ġkimch": 8473,
      "Ġkidneys": 8474,
      "Ġreconst": 8475,
      "aven": 8476,
      "avirus": 8477,
      "plish": 8478,
      "places": 8479,
      "plane": 8480,
      "tee": 8481,
      "teen": 8482,
      "tebr": 8483,
      "Ġclues": 8484,
      "Ġclaude": 8485,
      "Ġspan": 8486,
      "Ġspent": 8487,
      "Ġsprou": 8488,
      "Ġspade": 8489,
      "Ġspaces": 8490,
      "Ġspoken": 8491,
      "Ġspatial": 8492,
      "Ġsyn": 8493,
      "Ġevap": 8494,
      "ĠUK": 8495,
      "ĠUS": 8496,
      "ĠUSA": 8497,
      "ĠUpper": 8498,
      "ĠUlt": 8499,
      "Ġperce": 8500,
      "Ġpercept": 8501,
      "Ġperpet": 8502,
      "Ġproducing": 8503,
      "berries": 8504,
      "berto": 8505,
      "aked": 8506,
      "âĢĿ.": 8507,
      "ifications": 8508,
      "ogether": 8509,
      "Ġouter": 8510,
      "Ġaging": 8511,
      "Ġaged": 8512,
      "Ġagencies": 8513,
      "Ġtimeline": 8514,
      "Ġundoubted": 8515,
      "ritical": 8516,
      "cludes": 8517,
      "Ġrot": 8518,
      "Ġroad": 8519,
      "ounder": 8520,
      "Ġtries": 8521,
      "Ġtrich": 8522,
      "hyl": 8523,
      "Ġoffic": 8524,
      "Ġmeals": 8525,
      "Ġmeets": 8526,
      "Ġmeats": 8527,
      "Ġdiary": 8528,
      "ĠYet": 8529,
      "ĠYellow": 8530,
      "aceut": 8531,
      "Ġpartn": 8532,
      "Ġpartner": 8533,
      "ĠJane": 8534,
      "Ġupstairs": 8535,
      "Ġovergrow": 8536,
      "ishable": 8537,
      "Ġdiffusion": 8538,
      "anga": 8539,
      "ailers": 8540,
      "iplication": 8541,
      "ocrine": 8542,
      "Ġdesired": 8543,
      "Ġdescription": 8544,
      "Ġdesirable": 8545,
      "ĠStat": 8546,
      "ĠStore": 8547,
      "ĠStone": 8548,
      "ĠStromquist": 8549,
      "Ġchildhood": 8550,
      "Ġworkplaces": 8551,
      "Ġthereby": 8552,
      "Ġexamining": 8553,
      "TINCTION": 8554,
      "ĠKER": 8555,
      "ĠKalten": 8556,
      "Ġracial": 8557,
      "Ġraids": 8558,
      "Ġrabb": 8559,
      "Ġrandom": 8560,
      "rick": 8561,
      "Ġinterlin": 8562,
      "ĠVal": 8563,
      "ĠVern": 8564,
      "ĠViet": 8565,
      "ĠVoyager": 8566,
      "Ġ...": 8567,
      "Ġtwenty": 8568,
      "enses": 8569,
      "ension": 8570,
      "Ġanyone": 8571,
      "Ġpatent": 8572,
      "Ġpatents": 8573,
      "irsty": 8574,
      "compat": 8575,
      "Ġseeds": 8576,
      "Ġsolved": 8577,
      "Ġpeer": 8578,
      "Ġpean": 8579,
      "ĠChain": 8580,
      "ĠChange": 8581,
      "ĠChann": 8582,
      "Ġsurf": 8583,
      "Ġsurveillance": 8584,
      "Ġknowing": 8585,
      "Ġexposing": 8586,
      "Ġrelax": 8587,
      "ANS": 8588,
      "Ġsignals": 8589,
      "Ġ37": 8590,
      "ĠAlberto": 8591,
      "Ġlocate": 8592,
      "Ġregarded": 8593,
      "Ġrequest": 8594,
      "Ġrequiring": 8595,
      "Ġnewsp": 8596,
      "Ġremedies": 8597,
      "Ġformat": 8598,
      "Ġactors": 8599,
      "hesia": 8600,
      "Ġfolate": 8601,
      "Ġfoliage": 8602,
      "aped": 8603,
      "Ġmetals": 8604,
      "avier": 8605,
      "Ġsmoking": 8606,
      "ĠRecent": 8607,
      "ĠReview": 8608,
      "Ġattach": 8609,
      "Ġmodifications": 8610,
      "Ġhomozygote": 8611,
      "Ġexperiment": 8612,
      "Ġvaried": 8613,
      "Ġvariation": 8614,
      "Ġvariant": 8615,
      "Ġvariations": 8616,
      "Ġvariability": 8617,
      "ĠSelect": 8618,
      "ĠSeptember": 8619,
      "Ġsubur": 8620,
      "Ġsubmission": 8621,
      "Ġsubmitted": 8622,
      "Ġmines": 8623,
      "Ġminor": 8624,
      "Ġminiaturization": 8625,
      "tting": 8626,
      "Ġcoal": 8627,
      "Ġcope": 8628,
      "Ġ43": 8629,
      "Ġ44": 8630,
      "centered": 8631,
      "aleozoic": 8632,
      "issus": 8633,
      "Ġlarva": 8634,
      "Ġextre": 8635,
      "Ġresulted": 8636,
      "cycle": 8637,
      "Ġsupported": 8638,
      "Ġsupportive": 8639,
      "Ġeffectiveness": 8640,
      "Ġdepth": 8641,
      "Ġdeposition": 8642,
      "Ġdepartment": 8643,
      "Ġdepression": 8644,
      "Ġplanners": 8645,
      "Ġplanetary": 8646,
      "Ġriskier": 8647,
      "ringha": 8648,
      "worth": 8649,
      "works": 8650,
      "Ġpersuade": 8651,
      "Ġalleg": 8652,
      "Ġenslaved": 8653,
      "Ġgenerated": 8654,
      "Ġdraft": 8655,
      "ĠEncry": 8656,
      "Ġmedic": 8657,
      "Ġidentif": 8658,
      "Ġidentities": 8659,
      "Ġphenyl": 8660,
      "Ġ185": 8661,
      "Ġ1850": 8662,
      "Ġ1813": 8663,
      "Ġlessen": 8664,
      "Ġproviders": 8665,
      "Ġshel": 8666,
      "Ġsheep": 8667,
      "Ġrefer": 8668,
      "ĠProb": 8669,
      "ĠProtect": 8670,
      "ĠProblem": 8671,
      "ĠProspects": 8672,
      "ĠFriday": 8673,
      "Ġending": 8674,
      "Ġendang": 8675,
      "Ġendless": 8676,
      "Ġresearching": 8677,
      "Ġedition": 8678,
      "Ġediting": 8679,
      "Ġsets": 8680,
      "Ġsettle": 8681,
      "ĠConstitution": 8682,
      "Ġjustify": 8683,
      "Ġnoise": 8684,
      "Ġnovel": 8685,
      "ĠWhatsApp": 8686,
      "Ġarticles": 8687,
      "Ġcoloring": 8688,
      "Ġtestament": 8689,
      "Ġpainted": 8690,
      "Ġequally": 8691,
      "ĠNeolith": 8692,
      "Ġherd": 8693,
      "Ġtemporary": 8694,
      "Ġdefect": 8695,
      "Ġdefining": 8696,
      "Ġdefense": 8697,
      "Ġdefault": 8698,
      "Ġoperate": 8699,
      "Ġoperator": 8700,
      "Ġbug": 8701,
      "def": 8702,
      "Ġbackup": 8703,
      "Ġbackdrop": 8704,
      "Ġantiviral": 8705,
      "Ġrecycle": 8706,
      "Ġfulfill": 8707,
      "Ġeveryday": 8708,
      "Ġpromin": 8709,
      "Ġprompt": 8710,
      "ĠWeeping": 8711,
      "Ġadvoc": 8712,
      "Ġadvise": 8713,
      "Ġfollows": 8714,
      "Ġcrossed": 8715,
      "Ġinspection": 8716,
      "Ġrealm": 8717,
      "Ġrealistic": 8718,
      "Ġasset": 8719,
      "Ġassist": 8720,
      "ĠUnlike": 8721,
      "Ġactivated": 8722,
      "Ġefficiencies": 8723,
      "Ġgrade": 8724,
      "Ġgraze": 8725,
      "Ġgrazing": 8726,
      "ĠPlay": 8727,
      "ĠPlate": 8728,
      "Ġchanged": 8729,
      "Ġeconomics": 8730,
      "Ġeconomists": 8731,
      "ĠAdapt": 8732,
      "ĠAdoles": 8733,
      "Ġschooling": 8734,
      "Ġbullying": 8735,
      "Ġretailers": 8736,
      "Ġcontinent": 8737,
      "Ġcontinues": 8738,
      "Ġcontinental": 8739,
      "iously": 8740,
      "Ġelegant": 8741,
      "ĠINCOMPLETE": 8742,
      "ĠINFL": 8743,
      "Ġdecimal": 8744,
      "Ġdecides": 8745,
      "Ġlegs": 8746,
      "Ġmethane": 8747,
      "theless": 8748,
      "Ġclot": 8749,
      "Ġforever": 8750,
      "Ġforecasts": 8751,
      "Ġforeskin": 8752,
      "Ġdelve": 8753,
      "ĠDeer": 8754,
      "ĠDehydration": 8755,
      "ĠDeclaration": 8756,
      "Ġappealing": 8757,
      "Ġflat": 8758,
      "Ġflour": 8759,
      "ĠSociety": 8760,
      "2012": 8761,
      "2010": 8762,
      "Ġ76": 8763,
      "Ġcruelty": 8764,
      "Ġwars": 8765,
      "Ġwarning": 8766,
      "ĠAndreas": 8767,
      "Ġconfident": 8768,
      "Ġconference": 8769,
      "Ġmethodology": 8770,
      "brunner": 8771,
      "iction": 8772,
      "Ġvirtually": 8773,
      "Ġperforming": 8774,
      "Ġparameters": 8775,
      "Ġblank": 8776,
      "Ġbreeds": 8777,
      "Ġmaxim": 8778,
      "Ġdistress": 8779,
      "Ġheadaches": 8780,
      "Ġheadquarters": 8781,
      "iversary": 8782,
      "Ġcarries": 8783,
      "Ġopposed": 8784,
      "Ġ1743": 8785,
      "Ġ1753": 8786,
      "Ġ2013": 8787,
      "Ġensured": 8788,
      "Ġfreedoms": 8789,
      "Ġairways": 8790,
      "ediate": 8791,
      "Ġcontainers": 8792,
      "Ġdiscount": 8793,
      "Ġscientist": 8794,
      "Ġbroke": 8795,
      "Ġvisits": 8796,
      "Ġvisibility": 8797,
      "Ġchoosing": 8798,
      "Ġencounter": 8799,
      "Ġenclosure": 8800,
      "Ġengages": 8801,
      "Ġpointed": 8802,
      "Ġdiagnosed": 8803,
      "Ġdiagnoses": 8804,
      "Ġoptimizing": 8805,
      "Ġoptimize": 8806,
      "Ġpurifier": 8807,
      "Ġpurposes": 8808,
      "Ġlightweight": 8809,
      "ĠIndoor": 8810,
      "ĠIndex": 8811,
      "Ġcontrolled": 8812,
      "CESSI": 8813,
      "Ġpositions": 8814,
      "Ġresting": 8815,
      "Ġrestaur": 8816,
      "Ġconditioning": 8817,
      "Ġfriendliness": 8818,
      "Ġlandfill": 8819,
      "Ġconstit": 8820,
      "Ġgenotypically": 8821,
      "Ġspecialized": 8822,
      "ĠYourself": 8823,
      "Ġdirections": 8824,
      "Ġassociate": 8825,
      "Ġassociates": 8826,
      "ĠEXTINCTION": 8827,
      "Ġrocks": 8828,
      "Ġprime": 8829,
      "Ġcharacteristics": 8830,
      "Ġbelieves": 8831,
      "Ġpaying": 8832,
      "Ġbridge": 8833,
      "Ġbrutal": 8834,
      "Ġmatte": 8835,
      "Ġdrives": 8836,
      "Ġdrink": 8837,
      "roduction": 8838,
      "Ġready": 8839,
      "ĠEngland": 8840,
      "Ġinfluences": 8841,
      "Ġterr": 8842,
      "Ġphilo": 8843,
      "Ġmenus": 8844,
      "Ġproperties": 8845,
      "ĠSpace": 8846,
      "Ġwebsites": 8847,
      "Ġcleaning": 8848,
      "Ġdiscussion": 8849,
      "premises": 8850,
      "Ġcalculation": 8851,
      "Ġcalendar": 8852,
      "Ġpassage": 8853,
      "Ġdidn": 8854,
      "Ġrelevance": 8855,
      "ĠMonitor": 8856,
      "Ġplayer": 8857,
      "Ġplayers": 8858,
      "Ġinterests": 8859,
      "Ġresponsibility": 8860,
      "facts": 8861,
      "Ġsatisfactory": 8862,
      "Ġwanted": 8863,
      "Ġinnovative": 8864,
      "clusive": 8865,
      "Ġadapting": 8866,
      "Ġdisposing": 8867,
      "Ġrecording": 8868,
      "Ġchemotherapy": 8869,
      "Ġassessments": 8870,
      "Ġescal": 8871,
      "Ġurtic": 8872,
      "Ġtalent": 8873,
      "Ġpsychopathology": 8874,
      "Ġfacil": 8875,
      "Ġmassive": 8876,
      "loying": 8877,
      "Ġgrass": 8878,
      "Ġgrants": 8879,
      "Ġgrasses": 8880,
      "Ġvolumes": 8881,
      "Ġruns": 8882,
      "Ġintegral": 8883,
      "Ġaccum": 8884,
      "Ġaccidents": 8885,
      "Ġpaths": 8886,
      "ĠCommission": 8887,
      "Ġrepresenting": 8888,
      "Ġrepresentation": 8889,
      "ĠÂ£": 8890,
      "ĠÂ½": 8891,
      "Ġmindfulness": 8892,
      "sequently": 8893,
      "Ġoriginated": 8894,
      "Ġsuffered": 8895,
      "ĠInflu": 8896,
      "Ġscaling": 8897,
      "Ġaddresses": 8898,
      "Ġaddressed": 8899,
      "azine": 8900,
      "Ġversions": 8901,
      "Ġversatile": 8902,
      "Ġwrites": 8903,
      "ĠAlliance": 8904,
      "notated": 8905,
      "Ġerrors": 8906,
      "Ġmyster": 8907,
      "Ġmacro": 8908,
      "ĠmacOS": 8909,
      "ashion": 8910,
      "Ġlasting": 8911,
      "Ġlasted": 8912,
      "ĠCreate": 8913,
      "Ġexpressions": 8914,
      "Ġpollutants": 8915,
      "Ġconsideration": 8916,
      "Ġdestination": 8917,
      "Ġdestiny": 8918,
      "ĠIsaac": 8919,
      "ĠEarned": 8920,
      "Ġprinciple": 8921,
      "Ġillustrations": 8922,
      "Ġreceiving": 8923,
      "ĠImaging": 8924,
      "Ġexisting": 8925,
      "Ġseparation": 8926,
      "Ġseparating": 8927,
      "ophil": 8928,
      "ĠLaws": 8929,
      "Ġtransformative": 8930,
      "Ġpopularity": 8931,
      "Ġmonthly": 8932,
      "Ġsites": 8933,
      "Ġsitting": 8934,
      "Ġmachinery": 8935,
      "Ġlayered": 8936,
      "Ġprevailing": 8937,
      "Ġmanageable": 8938,
      "ĠComput": 8939,
      "ĠCompanies": 8940,
      "Ġrevolutionize": 8941,
      "Ġgroundbre": 8942,
      "Ġsteam": 8943,
      "Ġstored": 8944,
      "ĠScarring": 8945,
      "Ġhereditary": 8946,
      "Ġroute": 8947,
      "Ġenhanced": 8948,
      "Ġ2001": 8949,
      "Ġ2008": 8950,
      "rievers": 8951,
      "Ġabsent": 8952,
      "Ġabsence": 8953,
      "Ġtradeoff": 8954,
      "Ġrarely": 8955,
      "Ġminimize": 8956,
      "Ġminimizes": 8957,
      "Ġaudits": 8958,
      "Ġaudio": 8959,
      "Ġcognition": 8960,
      "Ġmoves": 8961,
      "Ġmovies": 8962,
      "Ġnuts": 8963,
      "igmenting": 8964,
      "Ġpregnancies": 8965,
      "ographical": 8966,
      "Ġargued": 8967,
      "Ġarguing": 8968,
      "Ġpersonalized": 8969,
      "Ġbroadcasts": 8970,
      "isfaction": 8971,
      "Ġfoster": 8972,
      "ĠTrust": 8973,
      "ĠArts": 8974,
      "ĠArmy": 8975,
      "Ġpreferred": 8976,
      "Ġcomplicated": 8977,
      "Ġtexture": 8978,
      "Ġinstalling": 8979,
      "Ġmeasured": 8980,
      "Ġaccounts": 8981,
      "Ġslave": 8982,
      "Ġfoil": 8983,
      "Ġbacterium": 8984,
      "ĠTrends": 8985,
      "ĠArea": 8986,
      "ĠAreca": 8987,
      "ĠPerform": 8988,
      "ĠEconomist": 8989,
      "Ġpredator": 8990,
      "Ġnearby": 8991,
      "Ġcapture": 8992,
      "Ġdescribing": 8993,
      "ĠStudent": 8994,
      "Ġvegetation": 8995,
      "Ġtargeted": 8996,
      "amentals": 8997,
      "tinoin": 8998,
      "Ġirr": 8999,
      "Ġirre": 9000,
      "Ġcrater": 9001,
      "Ġcrime": 9002,
      "Ġcycling": 9003,
      "Ġcodominance": 9004,
      "Ġreplant": 9005,
      "Ġgardens": 9006,
      "ĠPoss": 9007,
      "ĠPoint": 9008,
      "Ġsharing": 9009,
      "Ġintroduction": 9010,
      "Ġintroduces": 9011,
      "Ġintroducing": 9012,
      "Ġimplementation": 9013,
      "Ġclassic": 9014,
      "Ġclassified": 9015,
      "Ġinstructions": 9016,
      "Ġreflects": 9017,
      "Ġreflected": 9018,
      "Ġswitching": 9019,
      "Ġmanufacturer": 9020,
      "borne": 9021,
      "Ġureters": 9022,
      "Ġmarried": 9023,
      "ĠDiet": 9024,
      "ĠLogan": 9025,
      "ĠOthers": 9026,
      "Ġindicated": 9027,
      "ĠExplo": 9028,
      "Ġpaintings": 9029,
      "Ġcollaborative": 9030,
      "Ġcollaborators": 9031,
      "ikes": 9032,
      "Ġsalts": 9033,
      "Ġpigmented": 9034,
      "Ġburst": 9035,
      "Ġmutations": 9036,
      "Ġhosts": 9037,
      "Ġrevealing": 9038,
      "ĠTreatments": 9039,
      "rador": 9040,
      "Ġconnecting": 9041,
      "Ġconnected": 9042,
      "ĠCooking": 9043,
      "ĠCoastal": 9044,
      "Ġneglect": 9045,
      "Ġsilent": 9046,
      "Ġsensor": 9047,
      "Ġsensation": 9048,
      "Ġcutting": 9049,
      "Ġinsects": 9050,
      "Ġmilk": 9051,
      "Ġmilest": 9052,
      "ĠTests": 9053,
      "ĠActivities": 9054,
      "ĠScientist": 9055,
      "ĠPsychopathology": 9056,
      "Ġventilation": 9057,
      "Ġadoption": 9058,
      "Ġrecognized": 9059,
      "Ġevolving": 9060,
      "Ġconserving": 9061,
      "ĠStarting": 9062,
      "Ġreligion": 9063,
[...]
